{
  "version": "1.0",
  "truncation": null,
  "padding": null,
  "added_tokens": [
    {
      "id": 0,
      "content": "[PAD]",
      "single_word": false,
      "lstrip": false,
      "rstrip": false,
      "normalized": false,
      "special": true
    },
    {
      "id": 1,
      "content": "[BOS]",
      "single_word": false,
      "lstrip": false,
      "rstrip": false,
      "normalized": false,
      "special": true
    },
    {
      "id": 2,
      "content": "[EOS]",
      "single_word": false,
      "lstrip": false,
      "rstrip": false,
      "normalized": false,
      "special": true
    },
    {
      "id": 3,
      "content": "[UNK]",
      "single_word": false,
      "lstrip": false,
      "rstrip": false,
      "normalized": false,
      "special": true
    },
    {
      "id": 4,
      "content": "                               ",
      "single_word": false,
      "lstrip": false,
      "rstrip": false,
      "normalized": false,
      "special": false
    },
    {
      "id": 5,
      "content": "                              ",
      "single_word": false,
      "lstrip": false,
      "rstrip": false,
      "normalized": false,
      "special": false
    },
    {
      "id": 6,
      "content": "                             ",
      "single_word": false,
      "lstrip": false,
      "rstrip": false,
      "normalized": false,
      "special": false
    },
    {
      "id": 7,
      "content": "                            ",
      "single_word": false,
      "lstrip": false,
      "rstrip": false,
      "normalized": false,
      "special": false
    },
    {
      "id": 8,
      "content": "                           ",
      "single_word": false,
      "lstrip": false,
      "rstrip": false,
      "normalized": false,
      "special": false
    },
    {
      "id": 9,
      "content": "                          ",
      "single_word": false,
      "lstrip": false,
      "rstrip": false,
      "normalized": false,
      "special": false
    },
    {
      "id": 10,
      "content": "                         ",
      "single_word": false,
      "lstrip": false,
      "rstrip": false,
      "normalized": false,
      "special": false
    },
    {
      "id": 11,
      "content": "                        ",
      "single_word": false,
      "lstrip": false,
      "rstrip": false,
      "normalized": false,
      "special": false
    },
    {
      "id": 12,
      "content": "                       ",
      "single_word": false,
      "lstrip": false,
      "rstrip": false,
      "normalized": false,
      "special": false
    },
    {
      "id": 13,
      "content": "                      ",
      "single_word": false,
      "lstrip": false,
      "rstrip": false,
      "normalized": false,
      "special": false
    },
    {
      "id": 14,
      "content": "                     ",
      "single_word": false,
      "lstrip": false,
      "rstrip": false,
      "normalized": false,
      "special": false
    },
    {
      "id": 15,
      "content": "                    ",
      "single_word": false,
      "lstrip": false,
      "rstrip": false,
      "normalized": false,
      "special": false
    },
    {
      "id": 16,
      "content": "                   ",
      "single_word": false,
      "lstrip": false,
      "rstrip": false,
      "normalized": false,
      "special": false
    },
    {
      "id": 17,
      "content": "                  ",
      "single_word": false,
      "lstrip": false,
      "rstrip": false,
      "normalized": false,
      "special": false
    },
    {
      "id": 18,
      "content": "                 ",
      "single_word": false,
      "lstrip": false,
      "rstrip": false,
      "normalized": false,
      "special": false
    },
    {
      "id": 19,
      "content": "                ",
      "single_word": false,
      "lstrip": false,
      "rstrip": false,
      "normalized": false,
      "special": false
    },
    {
      "id": 20,
      "content": "               ",
      "single_word": false,
      "lstrip": false,
      "rstrip": false,
      "normalized": false,
      "special": false
    },
    {
      "id": 21,
      "content": "              ",
      "single_word": false,
      "lstrip": false,
      "rstrip": false,
      "normalized": false,
      "special": false
    },
    {
      "id": 22,
      "content": "             ",
      "single_word": false,
      "lstrip": false,
      "rstrip": false,
      "normalized": false,
      "special": false
    },
    {
      "id": 23,
      "content": "            ",
      "single_word": false,
      "lstrip": false,
      "rstrip": false,
      "normalized": false,
      "special": false
    },
    {
      "id": 24,
      "content": "           ",
      "single_word": false,
      "lstrip": false,
      "rstrip": false,
      "normalized": false,
      "special": false
    },
    {
      "id": 25,
      "content": "          ",
      "single_word": false,
      "lstrip": false,
      "rstrip": false,
      "normalized": false,
      "special": false
    },
    {
      "id": 26,
      "content": "         ",
      "single_word": false,
      "lstrip": false,
      "rstrip": false,
      "normalized": false,
      "special": false
    },
    {
      "id": 27,
      "content": "        ",
      "single_word": false,
      "lstrip": false,
      "rstrip": false,
      "normalized": false,
      "special": false
    },
    {
      "id": 28,
      "content": "       ",
      "single_word": false,
      "lstrip": false,
      "rstrip": false,
      "normalized": false,
      "special": false
    },
    {
      "id": 29,
      "content": "      ",
      "single_word": false,
      "lstrip": false,
      "rstrip": false,
      "normalized": false,
      "special": false
    },
    {
      "id": 30,
      "content": "     ",
      "single_word": false,
      "lstrip": false,
      "rstrip": false,
      "normalized": false,
      "special": false
    },
    {
      "id": 31,
      "content": "    ",
      "single_word": false,
      "lstrip": false,
      "rstrip": false,
      "normalized": false,
      "special": false
    },
    {
      "id": 32,
      "content": "   ",
      "single_word": false,
      "lstrip": false,
      "rstrip": false,
      "normalized": false,
      "special": false
    },
    {
      "id": 33,
      "content": "  ",
      "single_word": false,
      "lstrip": false,
      "rstrip": false,
      "normalized": false,
      "special": false
    },
    {
      "id": 34,
      "content": "\t\t\t\t\t\t\t\t\t",
      "single_word": false,
      "lstrip": false,
      "rstrip": false,
      "normalized": false,
      "special": false
    },
    {
      "id": 35,
      "content": "\t\t\t\t\t\t\t\t",
      "single_word": false,
      "lstrip": false,
      "rstrip": false,
      "normalized": false,
      "special": false
    },
    {
      "id": 36,
      "content": "\t\t\t\t\t\t\t",
      "single_word": false,
      "lstrip": false,
      "rstrip": false,
      "normalized": false,
      "special": false
    },
    {
      "id": 37,
      "content": "\t\t\t\t\t\t",
      "single_word": false,
      "lstrip": false,
      "rstrip": false,
      "normalized": false,
      "special": false
    },
    {
      "id": 38,
      "content": "\t\t\t\t\t",
      "single_word": false,
      "lstrip": false,
      "rstrip": false,
      "normalized": false,
      "special": false
    },
    {
      "id": 39,
      "content": "\t\t\t\t",
      "single_word": false,
      "lstrip": false,
      "rstrip": false,
      "normalized": false,
      "special": false
    },
    {
      "id": 40,
      "content": "\t\t\t",
      "single_word": false,
      "lstrip": false,
      "rstrip": false,
      "normalized": false,
      "special": false
    },
    {
      "id": 41,
      "content": "\t\t",
      "single_word": false,
      "lstrip": false,
      "rstrip": false,
      "normalized": false,
      "special": false
    },
    {
      "id": 42,
      "content": "\n\n\n\n\n\n\n\n\n",
      "single_word": false,
      "lstrip": false,
      "rstrip": false,
      "normalized": false,
      "special": false
    },
    {
      "id": 43,
      "content": "\n\n\n\n\n\n\n\n",
      "single_word": false,
      "lstrip": false,
      "rstrip": false,
      "normalized": false,
      "special": false
    },
    {
      "id": 44,
      "content": "\n\n\n\n\n\n\n",
      "single_word": false,
      "lstrip": false,
      "rstrip": false,
      "normalized": false,
      "special": false
    },
    {
      "id": 45,
      "content": "\n\n\n\n\n\n",
      "single_word": false,
      "lstrip": false,
      "rstrip": false,
      "normalized": false,
      "special": false
    },
    {
      "id": 46,
      "content": "\n\n\n\n\n",
      "single_word": false,
      "lstrip": false,
      "rstrip": false,
      "normalized": false,
      "special": false
    },
    {
      "id": 47,
      "content": "\n\n\n\n",
      "single_word": false,
      "lstrip": false,
      "rstrip": false,
      "normalized": false,
      "special": false
    },
    {
      "id": 48,
      "content": "\n\n\n",
      "single_word": false,
      "lstrip": false,
      "rstrip": false,
      "normalized": false,
      "special": false
    },
    {
      "id": 49,
      "content": "\n\n",
      "single_word": false,
      "lstrip": false,
      "rstrip": false,
      "normalized": false,
      "special": false
    },
    {
      "id": 50,
      "content": "<|system|>",
      "single_word": false,
      "lstrip": false,
      "rstrip": false,
      "normalized": false,
      "special": true
    },
    {
      "id": 51,
      "content": "<|user|>",
      "single_word": false,
      "lstrip": false,
      "rstrip": false,
      "normalized": false,
      "special": true
    },
    {
      "id": 52,
      "content": "<|assistant|>",
      "single_word": false,
      "lstrip": false,
      "rstrip": false,
      "normalized": false,
      "special": true
    },
    {
      "id": 53,
      "content": "<|endofturn|>",
      "single_word": false,
      "lstrip": false,
      "rstrip": false,
      "normalized": false,
      "special": true
    },
    {
      "id": 54,
      "content": "<think>",
      "single_word": false,
      "lstrip": false,
      "rstrip": false,
      "normalized": false,
      "special": false
    },
    {
      "id": 55,
      "content": "</think>",
      "single_word": false,
      "lstrip": false,
      "rstrip": false,
      "normalized": false,
      "special": false
    },
    {
      "id": 56,
      "content": "<tool_call>",
      "single_word": false,
      "lstrip": false,
      "rstrip": false,
      "normalized": false,
      "special": false
    },
    {
      "id": 57,
      "content": "</tool_call>",
      "single_word": false,
      "lstrip": false,
      "rstrip": false,
      "normalized": false,
      "special": false
    },
    {
      "id": 58,
      "content": "<tool_result>",
      "single_word": false,
      "lstrip": false,
      "rstrip": false,
      "normalized": false,
      "special": false
    },
    {
      "id": 59,
      "content": "</tool_result>",
      "single_word": false,
      "lstrip": false,
      "rstrip": false,
      "normalized": false,
      "special": false
    },
    {
      "id": 60,
      "content": "<|file_sep|>",
      "single_word": false,
      "lstrip": false,
      "rstrip": false,
      "normalized": false,
      "special": true
    },
    {
      "id": 61,
      "content": "<|repo_name|>",
      "single_word": false,
      "lstrip": false,
      "rstrip": false,
      "normalized": false,
      "special": true
    },
    {
      "id": 62,
      "content": "<|fim_prefix|>",
      "single_word": false,
      "lstrip": false,
      "rstrip": false,
      "normalized": false,
      "special": true
    },
    {
      "id": 63,
      "content": "<|fim_middle|>",
      "single_word": false,
      "lstrip": false,
      "rstrip": false,
      "normalized": false,
      "special": true
    },
    {
      "id": 64,
      "content": "<|fim_suffix|>",
      "single_word": false,
      "lstrip": false,
      "rstrip": false,
      "normalized": false,
      "special": true
    },
    {
      "id": 65,
      "content": "<|fim_pad|>",
      "single_word": false,
      "lstrip": false,
      "rstrip": false,
      "normalized": false,
      "special": true
    },
    {
      "id": 66,
      "content": "<|vision_pad|>",
      "single_word": false,
      "lstrip": false,
      "rstrip": false,
      "normalized": false,
      "special": true
    },
    {
      "id": 67,
      "content": "<|image_pad|>",
      "single_word": false,
      "lstrip": false,
      "rstrip": false,
      "normalized": false,
      "special": true
    },
    {
      "id": 68,
      "content": "<|video_pad|>",
      "single_word": false,
      "lstrip": false,
      "rstrip": false,
      "normalized": false,
      "special": true
    },
    {
      "id": 69,
      "content": "<object_ref>",
      "single_word": false,
      "lstrip": false,
      "rstrip": false,
      "normalized": false,
      "special": false
    },
    {
      "id": 70,
      "content": "</object_ref>",
      "single_word": false,
      "lstrip": false,
      "rstrip": false,
      "normalized": false,
      "special": false
    },
    {
      "id": 71,
      "content": "<box>",
      "single_word": false,
      "lstrip": false,
      "rstrip": false,
      "normalized": false,
      "special": false
    },
    {
      "id": 72,
      "content": "</box>",
      "single_word": false,
      "lstrip": false,
      "rstrip": false,
      "normalized": false,
      "special": false
    },
    {
      "id": 73,
      "content": "<vision>",
      "single_word": false,
      "lstrip": false,
      "rstrip": false,
      "normalized": false,
      "special": true
    },
    {
      "id": 74,
      "content": "</vision>",
      "single_word": false,
      "lstrip": false,
      "rstrip": false,
      "normalized": false,
      "special": true
    },
    {
      "id": 75,
      "content": "PI:EMAIL",
      "single_word": false,
      "lstrip": false,
      "rstrip": false,
      "normalized": false,
      "special": true
    },
    {
      "id": 76,
      "content": "PI:ACCOUNT_NUM",
      "single_word": false,
      "lstrip": false,
      "rstrip": false,
      "normalized": false,
      "special": true
    },
    {
      "id": 77,
      "content": "PI:PHONE_NUM",
      "single_word": false,
      "lstrip": false,
      "rstrip": false,
      "normalized": false,
      "special": true
    },
    {
      "id": 78,
      "content": "PI:BUSINESS_NUM",
      "single_word": false,
      "lstrip": false,
      "rstrip": false,
      "normalized": false,
      "special": true
    },
    {
      "id": 79,
      "content": "PI:ANNON",
      "single_word": false,
      "lstrip": false,
      "rstrip": false,
      "normalized": false,
      "special": true
    },
    {
      "id": 80,
      "content": "PI:KEY",
      "single_word": false,
      "lstrip": false,
      "rstrip": false,
      "normalized": false,
      "special": true
    },
    {
      "id": 81,
      "content": "PI:ID",
      "single_word": false,
      "lstrip": false,
      "rstrip": false,
      "normalized": false,
      "special": true
    },
    {
      "id": 82,
      "content": "PI:IP_ADDRESS",
      "single_word": false,
      "lstrip": false,
      "rstrip": false,
      "normalized": false,
      "special": true
    },
    {
      "id": 83,
      "content": "PI:USER",
      "single_word": false,
      "lstrip": false,
      "rstrip": false,
      "normalized": false,
      "special": true
    },
    {
      "id": 84,
      "content": "LG AI Research",
      "single_word": false,
      "lstrip": false,
      "rstrip": false,
      "normalized": false,
      "special": false
    },
    {
      "id": 85,
      "content": "LG AI연구원",
      "single_word": false,
      "lstrip": false,
      "rstrip": false,
      "normalized": false,
      "special": false
    },
    {
      "id": 86,
      "content": "EXAONE",
      "single_word": false,
      "lstrip": false,
      "rstrip": false,
      "normalized": false,
      "special": false
    },
    {
      "id": 87,
      "content": "엑사원",
      "single_word": false,
      "lstrip": false,
      "rstrip": false,
      "normalized": false,
      "special": false
    },
    {
      "id": 88,
      "content": "Sunkyoung Kim",
      "single_word": false,
      "lstrip": false,
      "rstrip": false,
      "normalized": false,
      "special": false
    },
    {
      "id": 89,
      "content": "Dongkeun Yoon",
      "single_word": false,
      "lstrip": false,
      "rstrip": false,
      "normalized": false,
      "special": false
    },
    {
      "id": 90,
      "content": "South Korea",
      "single_word": false,
      "lstrip": false,
      "rstrip": false,
      "normalized": false,
      "special": false
    },
    {
      "id": 91,
      "content": "Dokdo",
      "single_word": false,
      "lstrip": false,
      "rstrip": false,
      "normalized": false,
      "special": false
    },
    {
      "id": 92,
      "content": "獨島",
      "single_word": false,
      "lstrip": false,
      "rstrip": false,
      "normalized": false,
      "special": false
    },
    {
      "id": 93,
      "content": "Liancourt",
      "single_word": false,
      "lstrip": false,
      "rstrip": false,
      "normalized": false,
      "special": false
    },
    {
      "id": 94,
      "content": "리앙쿠르",
      "single_word": false,
      "lstrip": false,
      "rstrip": false,
      "normalized": false,
      "special": false
    },
    {
      "id": 95,
      "content": "Hangul",
      "single_word": false,
      "lstrip": false,
      "rstrip": false,
      "normalized": false,
      "special": false
    },
    {
      "id": 96,
      "content": "hanbok",
      "single_word": false,
      "lstrip": false,
      "rstrip": false,
      "normalized": false,
      "special": false
    },
    {
      "id": 97,
      "content": "kimchi",
      "single_word": false,
      "lstrip": false,
      "rstrip": false,
      "normalized": false,
      "special": false
    },
    {
      "id": 98,
      "content": "taekwondo",
      "single_word": false,
      "lstrip": false,
      "rstrip": false,
      "normalized": false,
      "special": false
    },
    {
      "id": 99,
      "content": "훈민정음",
      "single_word": false,
      "lstrip": false,
      "rstrip": false,
      "normalized": false,
      "special": false
    },
    {
      "id": 100,
      "content": "애국가",
      "single_word": false,
      "lstrip": false,
      "rstrip": false,
      "normalized": false,
      "special": false
    },
    {
      "id": 101,
      "content": "K-",
      "single_word": false,
      "lstrip": false,
      "rstrip": false,
      "normalized": false,
      "special": false
    },
    {
      "id": 102,
      "content": "<|grounding|>",
      "single_word": false,
      "lstrip": false,
      "rstrip": false,
      "normalized": false,
      "special": true
    },
    {
      "id": 103,
      "content": "<|markdown|>",
      "single_word": false,
      "lstrip": false,
      "rstrip": false,
      "normalized": false,
      "special": true
    },
    {
      "id": 104,
      "content": "<|html|>",
      "single_word": false,
      "lstrip": false,
      "rstrip": false,
      "normalized": false,
      "special": true
    },
    {
      "id": 105,
      "content": "<|tool|>",
      "single_word": false,
      "lstrip": false,
      "rstrip": false,
      "normalized": false,
      "special": true
    },
    {
      "id": 106,
      "content": "<|tool_declare|>",
      "single_word": false,
      "lstrip": false,
      "rstrip": false,
      "normalized": false,
      "special": true
    },
    {
      "id": 107,
      "content": "<unused5>",
      "single_word": false,
      "lstrip": false,
      "rstrip": false,
      "normalized": false,
      "special": true
    },
    {
      "id": 108,
      "content": "<unused6>",
      "single_word": false,
      "lstrip": false,
      "rstrip": false,
      "normalized": false,
      "special": true
    },
    {
      "id": 109,
      "content": "<unused7>",
      "single_word": false,
      "lstrip": false,
      "rstrip": false,
      "normalized": false,
      "special": true
    },
    {
      "id": 110,
      "content": "<unused8>",
      "single_word": false,
      "lstrip": false,
      "rstrip": false,
      "normalized": false,
      "special": true
    },
    {
      "id": 111,
      "content": "<unused9>",
      "single_word": false,
      "lstrip": false,
      "rstrip": false,
      "normalized": false,
      "special": true
    },
    {
      "id": 112,
      "content": "<unused10>",
      "single_word": false,
      "lstrip": false,
      "rstrip": false,
      "normalized": false,
      "special": true
    },
    {
      "id": 113,
      "content": "<unused11>",
      "single_word": false,
      "lstrip": false,
      "rstrip": false,
      "normalized": false,
      "special": true
    },
    {
      "id": 114,
      "content": "<unused12>",
      "single_word": false,
      "lstrip": false,
      "rstrip": false,
      "normalized": false,
      "special": true
    },
    {
      "id": 115,
      "content": "<unused13>",
      "single_word": false,
      "lstrip": false,
      "rstrip": false,
      "normalized": false,
      "special": true
    },
    {
      "id": 116,
      "content": "<unused14>",
      "single_word": false,
      "lstrip": false,
      "rstrip": false,
      "normalized": false,
      "special": true
    },
    {
      "id": 117,
      "content": "<unused15>",
      "single_word": false,
      "lstrip": false,
      "rstrip": false,
      "normalized": false,
      "special": true
    },
    {
      "id": 118,
      "content": "<unused16>",
      "single_word": false,
      "lstrip": false,
      "rstrip": false,
      "normalized": false,
      "special": true
    },
    {
      "id": 119,
      "content": "<unused17>",
      "single_word": false,
      "lstrip": false,
      "rstrip": false,
      "normalized": false,
      "special": true
    },
    {
      "id": 120,
      "content": "<unused18>",
      "single_word": false,
      "lstrip": false,
      "rstrip": false,
      "normalized": false,
      "special": true
    },
    {
      "id": 121,
      "content": "<unused19>",
      "single_word": false,
      "lstrip": false,
      "rstrip": false,
      "normalized": false,
      "special": true
    },
    {
      "id": 122,
      "content": "<unused20>",
      "single_word": false,
      "lstrip": false,
      "rstrip": false,
      "normalized": false,
      "special": true
    },
    {
      "id": 123,
      "content": "<unused21>",
      "single_word": false,
      "lstrip": false,
      "rstrip": false,
      "normalized": false,
      "special": true
    },
    {
      "id": 124,
      "content": "<unused22>",
      "single_word": false,
      "lstrip": false,
      "rstrip": false,
      "normalized": false,
      "special": true
    },
    {
      "id": 125,
      "content": "<unused23>",
      "single_word": false,
      "lstrip": false,
      "rstrip": false,
      "normalized": false,
      "special": true
    },
    {
      "id": 126,
      "content": "<unused24>",
      "single_word": false,
      "lstrip": false,
      "rstrip": false,
      "normalized": false,
      "special": true
    },
    {
      "id": 127,
      "content": "<unused25>",
      "single_word": false,
      "lstrip": false,
      "rstrip": false,
      "normalized": false,
      "special": true
    },
    {
      "id": 128,
      "content": "<unused26>",
      "single_word": false,
      "lstrip": false,
      "rstrip": false,
      "normalized": false,
      "special": true
    },
    {
      "id": 129,
      "content": "<unused27>",
      "single_word": false,
      "lstrip": false,
      "rstrip": false,
      "normalized": false,
      "special": true
    },
    {
      "id": 130,
      "content": "<unused28>",
      "single_word": false,
      "lstrip": false,
      "rstrip": false,
      "normalized": false,
      "special": true
    },
    {
      "id": 131,
      "content": "<unused29>",
      "single_word": false,
      "lstrip": false,
      "rstrip": false,
      "normalized": false,
      "special": true
    },
    {
      "id": 132,
      "content": "<unused30>",
      "single_word": false,
      "lstrip": false,
      "rstrip": false,
      "normalized": false,
      "special": true
    },
    {
      "id": 133,
      "content": "<unused31>",
      "single_word": false,
      "lstrip": false,
      "rstrip": false,
      "normalized": false,
      "special": true
    },
    {
      "id": 134,
      "content": "<unused32>",
      "single_word": false,
      "lstrip": false,
      "rstrip": false,
      "normalized": false,
      "special": true
    },
    {
      "id": 135,
      "content": "<unused33>",
      "single_word": false,
      "lstrip": false,
      "rstrip": false,
      "normalized": false,
      "special": true
    },
    {
      "id": 136,
      "content": "<unused34>",
      "single_word": false,
      "lstrip": false,
      "rstrip": false,
      "normalized": false,
      "special": true
    },
    {
      "id": 137,
      "content": "<unused35>",
      "single_word": false,
      "lstrip": false,
      "rstrip": false,
      "normalized": false,
      "special": true
    },
    {
      "id": 138,
      "content": "<unused36>",
      "single_word": false,
      "lstrip": false,
      "rstrip": false,
      "normalized": false,
      "special": true
    },
    {
      "id": 139,
      "content": "<unused37>",
      "single_word": false,
      "lstrip": false,
      "rstrip": false,
      "normalized": false,
      "special": true
    },
    {
      "id": 140,
      "content": "<unused38>",
      "single_word": false,
      "lstrip": false,
      "rstrip": false,
      "normalized": false,
      "special": true
    },
    {
      "id": 141,
      "content": "<unused39>",
      "single_word": false,
      "lstrip": false,
      "rstrip": false,
      "normalized": false,
      "special": true
    },
    {
      "id": 142,
      "content": "<unused40>",
      "single_word": false,
      "lstrip": false,
      "rstrip": false,
      "normalized": false,
      "special": true
    },
    {
      "id": 143,
      "content": "<unused41>",
      "single_word": false,
      "lstrip": false,
      "rstrip": false,
      "normalized": false,
      "special": true
    },
    {
      "id": 144,
      "content": "<unused42>",
      "single_word": false,
      "lstrip": false,
      "rstrip": false,
      "normalized": false,
      "special": true
    },
    {
      "id": 145,
      "content": "<unused43>",
      "single_word": false,
      "lstrip": false,
      "rstrip": false,
      "normalized": false,
      "special": true
    },
    {
      "id": 146,
      "content": "<unused44>",
      "single_word": false,
      "lstrip": false,
      "rstrip": false,
      "normalized": false,
      "special": true
    },
    {
      "id": 147,
      "content": "<unused45>",
      "single_word": false,
      "lstrip": false,
      "rstrip": false,
      "normalized": false,
      "special": true
    },
    {
      "id": 148,
      "content": "<unused46>",
      "single_word": false,
      "lstrip": false,
      "rstrip": false,
      "normalized": false,
      "special": true
    },
    {
      "id": 149,
      "content": "<unused47>",
      "single_word": false,
      "lstrip": false,
      "rstrip": false,
      "normalized": false,
      "special": true
    },
    {
      "id": 150,
      "content": "<unused48>",
      "single_word": false,
      "lstrip": false,
      "rstrip": false,
      "normalized": false,
      "special": true
    },
    {
      "id": 151,
      "content": "<unused49>",
      "single_word": false,
      "lstrip": false,
      "rstrip": false,
      "normalized": false,
      "special": true
    },
    {
      "id": 152,
      "content": "<unused50>",
      "single_word": false,
      "lstrip": false,
      "rstrip": false,
      "normalized": false,
      "special": true
    },
    {
      "id": 153,
      "content": "<unused51>",
      "single_word": false,
      "lstrip": false,
      "rstrip": false,
      "normalized": false,
      "special": true
    },
    {
      "id": 154,
      "content": "<unused52>",
      "single_word": false,
      "lstrip": false,
      "rstrip": false,
      "normalized": false,
      "special": true
    },
    {
      "id": 155,
      "content": "<unused53>",
      "single_word": false,
      "lstrip": false,
      "rstrip": false,
      "normalized": false,
      "special": true
    },
    {
      "id": 156,
      "content": "<unused54>",
      "single_word": false,
      "lstrip": false,
      "rstrip": false,
      "normalized": false,
      "special": true
    },
    {
      "id": 157,
      "content": "<unused55>",
      "single_word": false,
      "lstrip": false,
      "rstrip": false,
      "normalized": false,
      "special": true
    },
    {
      "id": 158,
      "content": "<unused56>",
      "single_word": false,
      "lstrip": false,
      "rstrip": false,
      "normalized": false,
      "special": true
    },
    {
      "id": 159,
      "content": "<unused57>",
      "single_word": false,
      "lstrip": false,
      "rstrip": false,
      "normalized": false,
      "special": true
    },
    {
      "id": 160,
      "content": "<unused58>",
      "single_word": false,
      "lstrip": false,
      "rstrip": false,
      "normalized": false,
      "special": true
    },
    {
      "id": 161,
      "content": "<unused59>",
      "single_word": false,
      "lstrip": false,
      "rstrip": false,
      "normalized": false,
      "special": true
    },
    {
      "id": 162,
      "content": "<unused60>",
      "single_word": false,
      "lstrip": false,
      "rstrip": false,
      "normalized": false,
      "special": true
    },
    {
      "id": 163,
      "content": "<unused61>",
      "single_word": false,
      "lstrip": false,
      "rstrip": false,
      "normalized": false,
      "special": true
    },
    {
      "id": 164,
      "content": "<unused62>",
      "single_word": false,
      "lstrip": false,
      "rstrip": false,
      "normalized": false,
      "special": true
    },
    {
      "id": 165,
      "content": "<unused63>",
      "single_word": false,
      "lstrip": false,
      "rstrip": false,
      "normalized": false,
      "special": true
    },
    {
      "id": 166,
      "content": "<unused64>",
      "single_word": false,
      "lstrip": false,
      "rstrip": false,
      "normalized": false,
      "special": true
    },
    {
      "id": 167,
      "content": "<unused65>",
      "single_word": false,
      "lstrip": false,
      "rstrip": false,
      "normalized": false,
      "special": true
    },
    {
      "id": 168,
      "content": "<unused66>",
      "single_word": false,
      "lstrip": false,
      "rstrip": false,
      "normalized": false,
      "special": true
    },
    {
      "id": 169,
      "content": "<unused67>",
      "single_word": false,
      "lstrip": false,
      "rstrip": false,
      "normalized": false,
      "special": true
    },
    {
      "id": 170,
      "content": "<unused68>",
      "single_word": false,
      "lstrip": false,
      "rstrip": false,
      "normalized": false,
      "special": true
    },
    {
      "id": 171,
      "content": "<unused69>",
      "single_word": false,
      "lstrip": false,
      "rstrip": false,
      "normalized": false,
      "special": true
    },
    {
      "id": 172,
      "content": "<unused70>",
      "single_word": false,
      "lstrip": false,
      "rstrip": false,
      "normalized": false,
      "special": true
    },
    {
      "id": 173,
      "content": "<unused71>",
      "single_word": false,
      "lstrip": false,
      "rstrip": false,
      "normalized": false,
      "special": true
    },
    {
      "id": 174,
      "content": "<unused72>",
      "single_word": false,
      "lstrip": false,
      "rstrip": false,
      "normalized": false,
      "special": true
    },
    {
      "id": 175,
      "content": "<unused73>",
      "single_word": false,
      "lstrip": false,
      "rstrip": false,
      "normalized": false,
      "special": true
    },
    {
      "id": 176,
      "content": "<unused74>",
      "single_word": false,
      "lstrip": false,
      "rstrip": false,
      "normalized": false,
      "special": true
    },
    {
      "id": 177,
      "content": "<unused75>",
      "single_word": false,
      "lstrip": false,
      "rstrip": false,
      "normalized": false,
      "special": true
    },
    {
      "id": 178,
      "content": "<unused76>",
      "single_word": false,
      "lstrip": false,
      "rstrip": false,
      "normalized": false,
      "special": true
    },
    {
      "id": 179,
      "content": "<unused77>",
      "single_word": false,
      "lstrip": false,
      "rstrip": false,
      "normalized": false,
      "special": true
    },
    {
      "id": 180,
      "content": "<unused78>",
      "single_word": false,
      "lstrip": false,
      "rstrip": false,
      "normalized": false,
      "special": true
    },
    {
      "id": 181,
      "content": "<unused79>",
      "single_word": false,
      "lstrip": false,
      "rstrip": false,
      "normalized": false,
      "special": true
    },
    {
      "id": 182,
      "content": "<unused80>",
      "single_word": false,
      "lstrip": false,
      "rstrip": false,
      "normalized": false,
      "special": true
    },
    {
      "id": 183,
      "content": "<unused81>",
      "single_word": false,
      "lstrip": false,
      "rstrip": false,
      "normalized": false,
      "special": true
    },
    {
      "id": 184,
      "content": "<unused82>",
      "single_word": false,
      "lstrip": false,
      "rstrip": false,
      "normalized": false,
      "special": true
    },
    {
      "id": 185,
      "content": "<unused83>",
      "single_word": false,
      "lstrip": false,
      "rstrip": false,
      "normalized": false,
      "special": true
    },
    {
      "id": 186,
      "content": "<unused84>",
      "single_word": false,
      "lstrip": false,
      "rstrip": false,
      "normalized": false,
      "special": true
    },
    {
      "id": 187,
      "content": "<unused85>",
      "single_word": false,
      "lstrip": false,
      "rstrip": false,
      "normalized": false,
      "special": true
    },
    {
      "id": 188,
      "content": "<unused86>",
      "single_word": false,
      "lstrip": false,
      "rstrip": false,
      "normalized": false,
      "special": true
    },
    {
      "id": 189,
      "content": "<unused87>",
      "single_word": false,
      "lstrip": false,
      "rstrip": false,
      "normalized": false,
      "special": true
    },
    {
      "id": 190,
      "content": "<unused88>",
      "single_word": false,
      "lstrip": false,
      "rstrip": false,
      "normalized": false,
      "special": true
    },
    {
      "id": 191,
      "content": "<unused89>",
      "single_word": false,
      "lstrip": false,
      "rstrip": false,
      "normalized": false,
      "special": true
    },
    {
      "id": 192,
      "content": "<unused90>",
      "single_word": false,
      "lstrip": false,
      "rstrip": false,
      "normalized": false,
      "special": true
    },
    {
      "id": 193,
      "content": "<unused91>",
      "single_word": false,
      "lstrip": false,
      "rstrip": false,
      "normalized": false,
      "special": true
    },
    {
      "id": 194,
      "content": "<unused92>",
      "single_word": false,
      "lstrip": false,
      "rstrip": false,
      "normalized": false,
      "special": true
    },
    {
      "id": 195,
      "content": "<unused93>",
      "single_word": false,
      "lstrip": false,
      "rstrip": false,
      "normalized": false,
      "special": true
    },
    {
      "id": 196,
      "content": "<unused94>",
      "single_word": false,
      "lstrip": false,
      "rstrip": false,
      "normalized": false,
      "special": true
    },
    {
      "id": 197,
      "content": "<unused95>",
      "single_word": false,
      "lstrip": false,
      "rstrip": false,
      "normalized": false,
      "special": true
    },
    {
      "id": 198,
      "content": "<unused96>",
      "single_word": false,
      "lstrip": false,
      "rstrip": false,
      "normalized": false,
      "special": true
    },
    {
      "id": 199,
      "content": "<unused97>",
      "single_word": false,
      "lstrip": false,
      "rstrip": false,
      "normalized": false,
      "special": true
    },
    {
      "id": 200,
      "content": "<unused98>",
      "single_word": false,
      "lstrip": false,
      "rstrip": false,
      "normalized": false,
      "special": true
    },
    {
      "id": 201,
      "content": "<unused99>",
      "single_word": false,
      "lstrip": false,
      "rstrip": false,
      "normalized": false,
      "special": true
    },
    {
      "id": 202,
      "content": "<unused100>",
      "single_word": false,
      "lstrip": false,
      "rstrip": false,
      "normalized": false,
      "special": true
    },
    {
      "id": 203,
      "content": "<unused101>",
      "single_word": false,
      "lstrip": false,
      "rstrip": false,
      "normalized": false,
      "special": true
    },
    {
      "id": 204,
      "content": "<unused102>",
      "single_word": false,
      "lstrip": false,
      "rstrip": false,
      "normalized": false,
      "special": true
    },
    {
      "id": 205,
      "content": "<unused103>",
      "single_word": false,
      "lstrip": false,
      "rstrip": false,
      "normalized": false,
      "special": true
    },
    {
      "id": 206,
      "content": "<unused104>",
      "single_word": false,
      "lstrip": false,
      "rstrip": false,
      "normalized": false,
      "special": true
    },
    {
      "id": 207,
      "content": "<unused105>",
      "single_word": false,
      "lstrip": false,
      "rstrip": false,
      "normalized": false,
      "special": true
    },
    {
      "id": 208,
      "content": "<unused106>",
      "single_word": false,
      "lstrip": false,
      "rstrip": false,
      "normalized": false,
      "special": true
    },
    {
      "id": 209,
      "content": "<unused107>",
      "single_word": false,
      "lstrip": false,
      "rstrip": false,
      "normalized": false,
      "special": true
    },
    {
      "id": 210,
      "content": "<unused108>",
      "single_word": false,
      "lstrip": false,
      "rstrip": false,
      "normalized": false,
      "special": true
    },
    {
      "id": 211,
      "content": "<unused109>",
      "single_word": false,
      "lstrip": false,
      "rstrip": false,
      "normalized": false,
      "special": true
    },
    {
      "id": 212,
      "content": "<unused110>",
      "single_word": false,
      "lstrip": false,
      "rstrip": false,
      "normalized": false,
      "special": true
    },
    {
      "id": 213,
      "content": "<unused111>",
      "single_word": false,
      "lstrip": false,
      "rstrip": false,
      "normalized": false,
      "special": true
    },
    {
      "id": 214,
      "content": "<unused112>",
      "single_word": false,
      "lstrip": false,
      "rstrip": false,
      "normalized": false,
      "special": true
    },
    {
      "id": 215,
      "content": "<unused113>",
      "single_word": false,
      "lstrip": false,
      "rstrip": false,
      "normalized": false,
      "special": true
    },
    {
      "id": 216,
      "content": "<unused114>",
      "single_word": false,
      "lstrip": false,
      "rstrip": false,
      "normalized": false,
      "special": true
    },
    {
      "id": 217,
      "content": "<unused115>",
      "single_word": false,
      "lstrip": false,
      "rstrip": false,
      "normalized": false,
      "special": true
    },
    {
      "id": 218,
      "content": "<unused116>",
      "single_word": false,
      "lstrip": false,
      "rstrip": false,
      "normalized": false,
      "special": true
    },
    {
      "id": 219,
      "content": "<unused117>",
      "single_word": false,
      "lstrip": false,
      "rstrip": false,
      "normalized": false,
      "special": true
    },
    {
      "id": 220,
      "content": "<unused118>",
      "single_word": false,
      "lstrip": false,
      "rstrip": false,
      "normalized": false,
      "special": true
    },
    {
      "id": 221,
      "content": "<unused119>",
      "single_word": false,
      "lstrip": false,
      "rstrip": false,
      "normalized": false,
      "special": true
    },
    {
      "id": 222,
      "content": "<unused120>",
      "single_word": false,
      "lstrip": false,
      "rstrip": false,
      "normalized": false,
      "special": true
    },
    {
      "id": 223,
      "content": "<unused121>",
      "single_word": false,
      "lstrip": false,
      "rstrip": false,
      "normalized": false,
      "special": true
    },
    {
      "id": 224,
      "content": "<unused122>",
      "single_word": false,
      "lstrip": false,
      "rstrip": false,
      "normalized": false,
      "special": true
    },
    {
      "id": 225,
      "content": "<unused123>",
      "single_word": false,
      "lstrip": false,
      "rstrip": false,
      "normalized": false,
      "special": true
    },
    {
      "id": 226,
      "content": "<unused124>",
      "single_word": false,
      "lstrip": false,
      "rstrip": false,
      "normalized": false,
      "special": true
    },
    {
      "id": 227,
      "content": "<unused125>",
      "single_word": false,
      "lstrip": false,
      "rstrip": false,
      "normalized": false,
      "special": true
    },
    {
      "id": 228,
      "content": "<unused126>",
      "single_word": false,
      "lstrip": false,
      "rstrip": false,
      "normalized": false,
      "special": true
    },
    {
      "id": 229,
      "content": "<unused127>",
      "single_word": false,
      "lstrip": false,
      "rstrip": false,
      "normalized": false,
      "special": true
    },
    {
      "id": 230,
      "content": "<unused128>",
      "single_word": false,
      "lstrip": false,
      "rstrip": false,
      "normalized": false,
      "special": true
    },
    {
      "id": 231,
      "content": "<unused129>",
      "single_word": false,
      "lstrip": false,
      "rstrip": false,
      "normalized": false,
      "special": true
    },
    {
      "id": 232,
      "content": "<unused130>",
      "single_word": false,
      "lstrip": false,
      "rstrip": false,
      "normalized": false,
      "special": true
    },
    {
      "id": 233,
      "content": "<unused131>",
      "single_word": false,
      "lstrip": false,
      "rstrip": false,
      "normalized": false,
      "special": true
    },
    {
      "id": 234,
      "content": "<unused132>",
      "single_word": false,
      "lstrip": false,
      "rstrip": false,
      "normalized": false,
      "special": true
    },
    {
      "id": 235,
      "content": "<unused133>",
      "single_word": false,
      "lstrip": false,
      "rstrip": false,
      "normalized": false,
      "special": true
    },
    {
      "id": 236,
      "content": "<unused134>",
      "single_word": false,
      "lstrip": false,
      "rstrip": false,
      "normalized": false,
      "special": true
    },
    {
      "id": 237,
      "content": "<unused135>",
      "single_word": false,
      "lstrip": false,
      "rstrip": false,
      "normalized": false,
      "special": true
    },
    {
      "id": 238,
      "content": "<unused136>",
      "single_word": false,
      "lstrip": false,
      "rstrip": false,
      "normalized": false,
      "special": true
    },
    {
      "id": 239,
      "content": "<unused137>",
      "single_word": false,
      "lstrip": false,
      "rstrip": false,
      "normalized": false,
      "special": true
    },
    {
      "id": 240,
      "content": "<unused138>",
      "single_word": false,
      "lstrip": false,
      "rstrip": false,
      "normalized": false,
      "special": true
    },
    {
      "id": 241,
      "content": "<unused139>",
      "single_word": false,
      "lstrip": false,
      "rstrip": false,
      "normalized": false,
      "special": true
    },
    {
      "id": 242,
      "content": "<unused140>",
      "single_word": false,
      "lstrip": false,
      "rstrip": false,
      "normalized": false,
      "special": true
    },
    {
      "id": 243,
      "content": "<unused141>",
      "single_word": false,
      "lstrip": false,
      "rstrip": false,
      "normalized": false,
      "special": true
    },
    {
      "id": 244,
      "content": "<unused142>",
      "single_word": false,
      "lstrip": false,
      "rstrip": false,
      "normalized": false,
      "special": true
    },
    {
      "id": 245,
      "content": "<unused143>",
      "single_word": false,
      "lstrip": false,
      "rstrip": false,
      "normalized": false,
      "special": true
    },
    {
      "id": 246,
      "content": "<unused144>",
      "single_word": false,
      "lstrip": false,
      "rstrip": false,
      "normalized": false,
      "special": true
    },
    {
      "id": 247,
      "content": "<unused145>",
      "single_word": false,
      "lstrip": false,
      "rstrip": false,
      "normalized": false,
      "special": true
    },
    {
      "id": 248,
      "content": "<unused146>",
      "single_word": false,
      "lstrip": false,
      "rstrip": false,
      "normalized": false,
      "special": true
    },
    {
      "id": 249,
      "content": "<unused147>",
      "single_word": false,
      "lstrip": false,
      "rstrip": false,
      "normalized": false,
      "special": true
    },
    {
      "id": 250,
      "content": "<unused148>",
      "single_word": false,
      "lstrip": false,
      "rstrip": false,
      "normalized": false,
      "special": true
    },
    {
      "id": 251,
      "content": "<unused149>",
      "single_word": false,
      "lstrip": false,
      "rstrip": false,
      "normalized": false,
      "special": true
    },
    {
      "id": 252,
      "content": "<unused150>",
      "single_word": false,
      "lstrip": false,
      "rstrip": false,
      "normalized": false,
      "special": true
    },
    {
      "id": 253,
      "content": "<unused151>",
      "single_word": false,
      "lstrip": false,
      "rstrip": false,
      "normalized": false,
      "special": true
    },
    {
      "id": 254,
      "content": "<unused152>",
      "single_word": false,
      "lstrip": false,
      "rstrip": false,
      "normalized": false,
      "special": true
    },
    {
      "id": 255,
      "content": "<unused153>",
      "single_word": false,
      "lstrip": false,
      "rstrip": false,
      "normalized": false,
      "special": true
    },
    {
      "id": 256,
      "content": "<unused154>",
      "single_word": false,
      "lstrip": false,
      "rstrip": false,
      "normalized": false,
      "special": true
    },
    {
      "id": 257,
      "content": "<unused155>",
      "single_word": false,
      "lstrip": false,
      "rstrip": false,
      "normalized": false,
      "special": true
    },
    {
      "id": 258,
      "content": "<unused156>",
      "single_word": false,
      "lstrip": false,
      "rstrip": false,
      "normalized": false,
      "special": true
    },
    {
      "id": 259,
      "content": "<unused157>",
      "single_word": false,
      "lstrip": false,
      "rstrip": false,
      "normalized": false,
      "special": true
    },
    {
      "id": 260,
      "content": "<unused158>",
      "single_word": false,
      "lstrip": false,
      "rstrip": false,
      "normalized": false,
      "special": true
    },
    {
      "id": 261,
      "content": "<unused159>",
      "single_word": false,
      "lstrip": false,
      "rstrip": false,
      "normalized": false,
      "special": true
    },
    {
      "id": 262,
      "content": "<unused160>",
      "single_word": false,
      "lstrip": false,
      "rstrip": false,
      "normalized": false,
      "special": true
    },
    {
      "id": 263,
      "content": "<unused161>",
      "single_word": false,
      "lstrip": false,
      "rstrip": false,
      "normalized": false,
      "special": true
    },
    {
      "id": 264,
      "content": "<unused162>",
      "single_word": false,
      "lstrip": false,
      "rstrip": false,
      "normalized": false,
      "special": true
    },
    {
      "id": 265,
      "content": "<unused163>",
      "single_word": false,
      "lstrip": false,
      "rstrip": false,
      "normalized": false,
      "special": true
    },
    {
      "id": 266,
      "content": "<unused164>",
      "single_word": false,
      "lstrip": false,
      "rstrip": false,
      "normalized": false,
      "special": true
    },
    {
      "id": 267,
      "content": "<unused165>",
      "single_word": false,
      "lstrip": false,
      "rstrip": false,
      "normalized": false,
      "special": true
    },
    {
      "id": 268,
      "content": "<unused166>",
      "single_word": false,
      "lstrip": false,
      "rstrip": false,
      "normalized": false,
      "special": true
    },
    {
      "id": 269,
      "content": "<unused167>",
      "single_word": false,
      "lstrip": false,
      "rstrip": false,
      "normalized": false,
      "special": true
    },
    {
      "id": 270,
      "content": "<unused168>",
      "single_word": false,
      "lstrip": false,
      "rstrip": false,
      "normalized": false,
      "special": true
    },
    {
      "id": 271,
      "content": "<unused169>",
      "single_word": false,
      "lstrip": false,
      "rstrip": false,
      "normalized": false,
      "special": true
    },
    {
      "id": 272,
      "content": "<unused170>",
      "single_word": false,
      "lstrip": false,
      "rstrip": false,
      "normalized": false,
      "special": true
    },
    {
      "id": 273,
      "content": "<unused171>",
      "single_word": false,
      "lstrip": false,
      "rstrip": false,
      "normalized": false,
      "special": true
    },
    {
      "id": 274,
      "content": "<unused172>",
      "single_word": false,
      "lstrip": false,
      "rstrip": false,
      "normalized": false,
      "special": true
    },
    {
      "id": 275,
      "content": "<unused173>",
      "single_word": false,
      "lstrip": false,
      "rstrip": false,
      "normalized": false,
      "special": true
    },
    {
      "id": 276,
      "content": "<unused174>",
      "single_word": false,
      "lstrip": false,
      "rstrip": false,
      "normalized": false,
      "special": true
    },
    {
      "id": 277,
      "content": "<unused175>",
      "single_word": false,
      "lstrip": false,
      "rstrip": false,
      "normalized": false,
      "special": true
    },
    {
      "id": 278,
      "content": "<unused176>",
      "single_word": false,
      "lstrip": false,
      "rstrip": false,
      "normalized": false,
      "special": true
    },
    {
      "id": 279,
      "content": "<unused177>",
      "single_word": false,
      "lstrip": false,
      "rstrip": false,
      "normalized": false,
      "special": true
    },
    {
      "id": 280,
      "content": "<unused178>",
      "single_word": false,
      "lstrip": false,
      "rstrip": false,
      "normalized": false,
      "special": true
    },
    {
      "id": 281,
      "content": "<unused179>",
      "single_word": false,
      "lstrip": false,
      "rstrip": false,
      "normalized": false,
      "special": true
    },
    {
      "id": 282,
      "content": "<unused180>",
      "single_word": false,
      "lstrip": false,
      "rstrip": false,
      "normalized": false,
      "special": true
    },
    {
      "id": 283,
      "content": "<unused181>",
      "single_word": false,
      "lstrip": false,
      "rstrip": false,
      "normalized": false,
      "special": true
    },
    {
      "id": 284,
      "content": "<unused182>",
      "single_word": false,
      "lstrip": false,
      "rstrip": false,
      "normalized": false,
      "special": true
    },
    {
      "id": 285,
      "content": "<unused183>",
      "single_word": false,
      "lstrip": false,
      "rstrip": false,
      "normalized": false,
      "special": true
    },
    {
      "id": 286,
      "content": "<unused184>",
      "single_word": false,
      "lstrip": false,
      "rstrip": false,
      "normalized": false,
      "special": true
    },
    {
      "id": 287,
      "content": "<unused185>",
      "single_word": false,
      "lstrip": false,
      "rstrip": false,
      "normalized": false,
      "special": true
    },
    {
      "id": 288,
      "content": "<unused186>",
      "single_word": false,
      "lstrip": false,
      "rstrip": false,
      "normalized": false,
      "special": true
    },
    {
      "id": 289,
      "content": "<unused187>",
      "single_word": false,
      "lstrip": false,
      "rstrip": false,
      "normalized": false,
      "special": true
    },
    {
      "id": 290,
      "content": "<unused188>",
      "single_word": false,
      "lstrip": false,
      "rstrip": false,
      "normalized": false,
      "special": true
    },
    {
      "id": 291,
      "content": "<unused189>",
      "single_word": false,
      "lstrip": false,
      "rstrip": false,
      "normalized": false,
      "special": true
    },
    {
      "id": 292,
      "content": "<unused190>",
      "single_word": false,
      "lstrip": false,
      "rstrip": false,
      "normalized": false,
      "special": true
    },
    {
      "id": 293,
      "content": "<unused191>",
      "single_word": false,
      "lstrip": false,
      "rstrip": false,
      "normalized": false,
      "special": true
    },
    {
      "id": 294,
      "content": "<unused192>",
      "single_word": false,
      "lstrip": false,
      "rstrip": false,
      "normalized": false,
      "special": true
    },
    {
      "id": 295,
      "content": "<unused193>",
      "single_word": false,
      "lstrip": false,
      "rstrip": false,
      "normalized": false,
      "special": true
    },
    {
      "id": 296,
      "content": "<unused194>",
      "single_word": false,
      "lstrip": false,
      "rstrip": false,
      "normalized": false,
      "special": true
    },
    {
      "id": 297,
      "content": "<unused195>",
      "single_word": false,
      "lstrip": false,
      "rstrip": false,
      "normalized": false,
      "special": true
    },
    {
      "id": 298,
      "content": "<unused196>",
      "single_word": false,
      "lstrip": false,
      "rstrip": false,
      "normalized": false,
      "special": true
    },
    {
      "id": 299,
      "content": "<unused197>",
      "single_word": false,
      "lstrip": false,
      "rstrip": false,
      "normalized": false,
      "special": true
    },
    {
      "id": 300,
      "content": "<unused198>",
      "single_word": false,
      "lstrip": false,
      "rstrip": false,
      "normalized": false,
      "special": true
    },
    {
      "id": 301,
      "content": "<unused199>",
      "single_word": false,
      "lstrip": false,
      "rstrip": false,
      "normalized": false,
      "special": true
    },
    {
      "id": 302,
      "content": "<unused200>",
      "single_word": false,
      "lstrip": false,
      "rstrip": false,
      "normalized": false,
      "special": true
    },
    {
      "id": 303,
      "content": "<unused201>",
      "single_word": false,
      "lstrip": false,
      "rstrip": false,
      "normalized": false,
      "special": true
    },
    {
      "id": 304,
      "content": "<unused202>",
      "single_word": false,
      "lstrip": false,
      "rstrip": false,
      "normalized": false,
      "special": true
    },
    {
      "id": 305,
      "content": "<unused203>",
      "single_word": false,
      "lstrip": false,
      "rstrip": false,
      "normalized": false,
      "special": true
    },
    {
      "id": 306,
      "content": "<unused204>",
      "single_word": false,
      "lstrip": false,
      "rstrip": false,
      "normalized": false,
      "special": true
    },
    {
      "id": 307,
      "content": "<unused205>",
      "single_word": false,
      "lstrip": false,
      "rstrip": false,
      "normalized": false,
      "special": true
    },
    {
      "id": 308,
      "content": "<unused206>",
      "single_word": false,
      "lstrip": false,
      "rstrip": false,
      "normalized": false,
      "special": true
    },
    {
      "id": 309,
      "content": "<unused207>",
      "single_word": false,
      "lstrip": false,
      "rstrip": false,
      "normalized": false,
      "special": true
    },
    {
      "id": 310,
      "content": "<unused208>",
      "single_word": false,
      "lstrip": false,
      "rstrip": false,
      "normalized": false,
      "special": true
    },
    {
      "id": 311,
      "content": "<unused209>",
      "single_word": false,
      "lstrip": false,
      "rstrip": false,
      "normalized": false,
      "special": true
    },
    {
      "id": 312,
      "content": "<unused210>",
      "single_word": false,
      "lstrip": false,
      "rstrip": false,
      "normalized": false,
      "special": true
    },
    {
      "id": 313,
      "content": "<unused211>",
      "single_word": false,
      "lstrip": false,
      "rstrip": false,
      "normalized": false,
      "special": true
    },
    {
      "id": 314,
      "content": "<unused212>",
      "single_word": false,
      "lstrip": false,
      "rstrip": false,
      "normalized": false,
      "special": true
    },
    {
      "id": 315,
      "content": "<unused213>",
      "single_word": false,
      "lstrip": false,
      "rstrip": false,
      "normalized": false,
      "special": true
    },
    {
      "id": 316,
      "content": "<unused214>",
      "single_word": false,
      "lstrip": false,
      "rstrip": false,
      "normalized": false,
      "special": true
    },
    {
      "id": 317,
      "content": "<unused215>",
      "single_word": false,
      "lstrip": false,
      "rstrip": false,
      "normalized": false,
      "special": true
    },
    {
      "id": 318,
      "content": "<unused216>",
      "single_word": false,
      "lstrip": false,
      "rstrip": false,
      "normalized": false,
      "special": true
    },
    {
      "id": 319,
      "content": "<unused217>",
      "single_word": false,
      "lstrip": false,
      "rstrip": false,
      "normalized": false,
      "special": true
    },
    {
      "id": 320,
      "content": "<unused218>",
      "single_word": false,
      "lstrip": false,
      "rstrip": false,
      "normalized": false,
      "special": true
    },
    {
      "id": 321,
      "content": "<unused219>",
      "single_word": false,
      "lstrip": false,
      "rstrip": false,
      "normalized": false,
      "special": true
    },
    {
      "id": 322,
      "content": "<unused220>",
      "single_word": false,
      "lstrip": false,
      "rstrip": false,
      "normalized": false,
      "special": true
    },
    {
      "id": 323,
      "content": "<unused221>",
      "single_word": false,
      "lstrip": false,
      "rstrip": false,
      "normalized": false,
      "special": true
    },
    {
      "id": 324,
      "content": "<unused222>",
      "single_word": false,
      "lstrip": false,
      "rstrip": false,
      "normalized": false,
      "special": true
    },
    {
      "id": 325,
      "content": "<unused223>",
      "single_word": false,
      "lstrip": false,
      "rstrip": false,
      "normalized": false,
      "special": true
    },
    {
      "id": 326,
      "content": "<unused224>",
      "single_word": false,
      "lstrip": false,
      "rstrip": false,
      "normalized": false,
      "special": true
    },
    {
      "id": 327,
      "content": "<unused225>",
      "single_word": false,
      "lstrip": false,
      "rstrip": false,
      "normalized": false,
      "special": true
    },
    {
      "id": 328,
      "content": "<unused226>",
      "single_word": false,
      "lstrip": false,
      "rstrip": false,
      "normalized": false,
      "special": true
    },
    {
      "id": 329,
      "content": "<unused227>",
      "single_word": false,
      "lstrip": false,
      "rstrip": false,
      "normalized": false,
      "special": true
    },
    {
      "id": 330,
      "content": "<unused228>",
      "single_word": false,
      "lstrip": false,
      "rstrip": false,
      "normalized": false,
      "special": true
    },
    {
      "id": 331,
      "content": "<unused229>",
      "single_word": false,
      "lstrip": false,
      "rstrip": false,
      "normalized": false,
      "special": true
    },
    {
      "id": 332,
      "content": "<unused230>",
      "single_word": false,
      "lstrip": false,
      "rstrip": false,
      "normalized": false,
      "special": true
    },
    {
      "id": 333,
      "content": "<unused231>",
      "single_word": false,
      "lstrip": false,
      "rstrip": false,
      "normalized": false,
      "special": true
    },
    {
      "id": 334,
      "content": "<unused232>",
      "single_word": false,
      "lstrip": false,
      "rstrip": false,
      "normalized": false,
      "special": true
    },
    {
      "id": 335,
      "content": "<unused233>",
      "single_word": false,
      "lstrip": false,
      "rstrip": false,
      "normalized": false,
      "special": true
    },
    {
      "id": 336,
      "content": "<unused234>",
      "single_word": false,
      "lstrip": false,
      "rstrip": false,
      "normalized": false,
      "special": true
    },
    {
      "id": 337,
      "content": "<unused235>",
      "single_word": false,
      "lstrip": false,
      "rstrip": false,
      "normalized": false,
      "special": true
    },
    {
      "id": 338,
      "content": "<unused236>",
      "single_word": false,
      "lstrip": false,
      "rstrip": false,
      "normalized": false,
      "special": true
    },
    {
      "id": 339,
      "content": "<unused237>",
      "single_word": false,
      "lstrip": false,
      "rstrip": false,
      "normalized": false,
      "special": true
    },
    {
      "id": 340,
      "content": "<unused238>",
      "single_word": false,
      "lstrip": false,
      "rstrip": false,
      "normalized": false,
      "special": true
    },
    {
      "id": 341,
      "content": "<unused239>",
      "single_word": false,
      "lstrip": false,
      "rstrip": false,
      "normalized": false,
      "special": true
    },
    {
      "id": 342,
      "content": "<unused240>",
      "single_word": false,
      "lstrip": false,
      "rstrip": false,
      "normalized": false,
      "special": true
    },
    {
      "id": 343,
      "content": "<unused241>",
      "single_word": false,
      "lstrip": false,
      "rstrip": false,
      "normalized": false,
      "special": true
    },
    {
      "id": 344,
      "content": "<unused242>",
      "single_word": false,
      "lstrip": false,
      "rstrip": false,
      "normalized": false,
      "special": true
    },
    {
      "id": 345,
      "content": "<unused243>",
      "single_word": false,
      "lstrip": false,
      "rstrip": false,
      "normalized": false,
      "special": true
    },
    {
      "id": 346,
      "content": "<unused244>",
      "single_word": false,
      "lstrip": false,
      "rstrip": false,
      "normalized": false,
      "special": true
    },
    {
      "id": 347,
      "content": "<unused245>",
      "single_word": false,
      "lstrip": false,
      "rstrip": false,
      "normalized": false,
      "special": true
    },
    {
      "id": 348,
      "content": "<unused246>",
      "single_word": false,
      "lstrip": false,
      "rstrip": false,
      "normalized": false,
      "special": true
    },
    {
      "id": 349,
      "content": "<unused247>",
      "single_word": false,
      "lstrip": false,
      "rstrip": false,
      "normalized": false,
      "special": true
    },
    {
      "id": 350,
      "content": "<unused248>",
      "single_word": false,
      "lstrip": false,
      "rstrip": false,
      "normalized": false,
      "special": true
    },
    {
      "id": 351,
      "content": "<unused249>",
      "single_word": false,
      "lstrip": false,
      "rstrip": false,
      "normalized": false,
      "special": true
    },
    {
      "id": 352,
      "content": "<unused250>",
      "single_word": false,
      "lstrip": false,
      "rstrip": false,
      "normalized": false,
      "special": true
    },
    {
      "id": 353,
      "content": "<unused251>",
      "single_word": false,
      "lstrip": false,
      "rstrip": false,
      "normalized": false,
      "special": true
    },
    {
      "id": 354,
      "content": "<unused252>",
      "single_word": false,
      "lstrip": false,
      "rstrip": false,
      "normalized": false,
      "special": true
    },
    {
      "id": 355,
      "content": "<unused253>",
      "single_word": false,
      "lstrip": false,
      "rstrip": false,
      "normalized": false,
      "special": true
    },
    {
      "id": 356,
      "content": "<unused254>",
      "single_word": false,
      "lstrip": false,
      "rstrip": false,
      "normalized": false,
      "special": true
    },
    {
      "id": 357,
      "content": "<unused255>",
      "single_word": false,
      "lstrip": false,
      "rstrip": false,
      "normalized": false,
      "special": true
    },
    {
      "id": 358,
      "content": "<unused256>",
      "single_word": false,
      "lstrip": false,
      "rstrip": false,
      "normalized": false,
      "special": true
    },
    {
      "id": 359,
      "content": "<unused257>",
      "single_word": false,
      "lstrip": false,
      "rstrip": false,
      "normalized": false,
      "special": true
    },
    {
      "id": 360,
      "content": "<unused258>",
      "single_word": false,
      "lstrip": false,
      "rstrip": false,
      "normalized": false,
      "special": true
    },
    {
      "id": 361,
      "content": "<unused259>",
      "single_word": false,
      "lstrip": false,
      "rstrip": false,
      "normalized": false,
      "special": true
    }
  ],
  "normalizer": {
    "type": "NFC"
  },
  "pre_tokenizer": {
    "type": "Sequence",
    "pretokenizers": [
      {
        "type": "Split",
        "pattern": {
          "Regex": "(?i:'s|'t|'re|'ve|'m|'ll|'d)|[^\\r\\n\\p{L}\\p{N}]?(?:\\p{L}\\p{M}*(?: \\p{L}\\p{M}*)*)+|\\p{N}| ?[^\\s\\p{L}\\p{N}]+[\\r\\n/]?|\\s*[\\r\\n]|\\s+(?!\\S)|\\s+"
        },
        "behavior": "Isolated",
        "invert": false
      },
      {
        "type": "ByteLevel",
        "add_prefix_space": false,
        "trim_offsets": false,
        "use_regex": false
      }
    ]
  },
  "post_processor": {
    "type": "ByteLevel",
    "add_prefix_space": true,
    "trim_offsets": false,
    "use_regex": true
  },
  "decoder": {
    "type": "ByteLevel",
    "add_prefix_space": true,
    "trim_offsets": true,
    "use_regex": true
  },
  "model": {
    "type": "BPE",
    "dropout": null,
    "unk_token": null,
    "continuing_subword_prefix": null,
    "end_of_word_suffix": null,
    "fuse_unk": false,
    "byte_fallback": false,
    "ignore_merges": false,
    "vocab": {
      "[PAD]": 0,
      "[BOS]": 1,
      "[EOS]": 2,
      "[UNK]": 3,
      "                               ": 4,
      "                              ": 5,
      "                             ": 6,
      "                            ": 7,
      "                           ": 8,
      "                          ": 9,
      "                         ": 10,
      "                        ": 11,
      "                       ": 12,
      "                      ": 13,
      "                     ": 14,
      "                    ": 15,
      "                   ": 16,
      "                  ": 17,
      "                 ": 18,
      "                ": 19,
      "               ": 20,
      "              ": 21,
      "             ": 22,
      "            ": 23,
      "           ": 24,
      "          ": 25,
      "         ": 26,
      "        ": 27,
      "       ": 28,
      "      ": 29,
      "     ": 30,
      "    ": 31,
      "   ": 32,
      "  ": 33,
      "\t\t\t\t\t\t\t\t\t": 34,
      "\t\t\t\t\t\t\t\t": 35,
      "\t\t\t\t\t\t\t": 36,
      "\t\t\t\t\t\t": 37,
      "\t\t\t\t\t": 38,
      "\t\t\t\t": 39,
      "\t\t\t": 40,
      "\t\t": 41,
      "\n\n\n\n\n\n\n\n\n": 42,
      "\n\n\n\n\n\n\n\n": 43,
      "\n\n\n\n\n\n\n": 44,
      "\n\n\n\n\n\n": 45,
      "\n\n\n\n\n": 46,
      "\n\n\n\n": 47,
      "\n\n\n": 48,
      "\n\n": 49,
      "<|system|>": 50,
      "<|user|>": 51,
      "<|assistant|>": 52,
      "<|endofturn|>": 53,
      "<think>": 54,
      "</think>": 55,
      "<tool_call>": 56,
      "</tool_call>": 57,
      "<tool_result>": 58,
      "</tool_result>": 59,
      "<|file_sep|>": 60,
      "<|repo_name|>": 61,
      "<|fim_prefix|>": 62,
      "<|fim_middle|>": 63,
      "<|fim_suffix|>": 64,
      "<|fim_pad|>": 65,
      "<|vision_pad|>": 66,
      "<|image_pad|>": 67,
      "<|video_pad|>": 68,
      "<object_ref>": 69,
      "</object_ref>": 70,
      "<box>": 71,
      "</box>": 72,
      "<vision>": 73,
      "</vision>": 74,
      "PI:EMAIL": 75,
      "PI:ACCOUNT_NUM": 76,
      "PI:PHONE_NUM": 77,
      "PI:BUSINESS_NUM": 78,
      "PI:ANNON": 79,
      "PI:KEY": 80,
      "PI:ID": 81,
      "PI:IP_ADDRESS": 82,
      "PI:USER": 83,
      "LG AI Research": 84,
      "LG AI연구원": 85,
      "EXAONE": 86,
      "엑사원": 87,
      "Sunkyoung Kim": 88,
      "Dongkeun Yoon": 89,
      "South Korea": 90,
      "Dokdo": 91,
      "獨島": 92,
      "Liancourt": 93,
      "리앙쿠르": 94,
      "Hangul": 95,
      "hanbok": 96,
      "kimchi": 97,
      "taekwondo": 98,
      "훈민정음": 99,
      "애국가": 100,
      "K-": 101,
      "<|grounding|>": 102,
      "<|markdown|>": 103,
      "<|html|>": 104,
      "<|tool|>": 105,
      "<|tool_declare|>": 106,
      "<unused5>": 107,
      "<unused6>": 108,
      "<unused7>": 109,
      "<unused8>": 110,
      "<unused9>": 111,
      "<unused10>": 112,
      "<unused11>": 113,
      "<unused12>": 114,
      "<unused13>": 115,
      "<unused14>": 116,
      "<unused15>": 117,
      "<unused16>": 118,
      "<unused17>": 119,
      "<unused18>": 120,
      "<unused19>": 121,
      "<unused20>": 122,
      "<unused21>": 123,
      "<unused22>": 124,
      "<unused23>": 125,
      "<unused24>": 126,
      "<unused25>": 127,
      "<unused26>": 128,
      "<unused27>": 129,
      "<unused28>": 130,
      "<unused29>": 131,
      "<unused30>": 132,
      "<unused31>": 133,
      "<unused32>": 134,
      "<unused33>": 135,
      "<unused34>": 136,
      "<unused35>": 137,
      "<unused36>": 138,
      "<unused37>": 139,
      "<unused38>": 140,
      "<unused39>": 141,
      "<unused40>": 142,
      "<unused41>": 143,
      "<unused42>": 144,
      "<unused43>": 145,
      "<unused44>": 146,
      "<unused45>": 147,
      "<unused46>": 148,
      "<unused47>": 149,
      "<unused48>": 150,
      "<unused49>": 151,
      "<unused50>": 152,
      "<unused51>": 153,
      "<unused52>": 154,
      "<unused53>": 155,
      "<unused54>": 156,
      "<unused55>": 157,
      "<unused56>": 158,
      "<unused57>": 159,
      "<unused58>": 160,
      "<unused59>": 161,
      "<unused60>": 162,
      "<unused61>": 163,
      "<unused62>": 164,
      "<unused63>": 165,
      "<unused64>": 166,
      "<unused65>": 167,
      "<unused66>": 168,
      "<unused67>": 169,
      "<unused68>": 170,
      "<unused69>": 171,
      "<unused70>": 172,
      "<unused71>": 173,
      "<unused72>": 174,
      "<unused73>": 175,
      "<unused74>": 176,
      "<unused75>": 177,
      "<unused76>": 178,
      "<unused77>": 179,
      "<unused78>": 180,
      "<unused79>": 181,
      "<unused80>": 182,
      "<unused81>": 183,
      "<unused82>": 184,
      "<unused83>": 185,
      "<unused84>": 186,
      "<unused85>": 187,
      "<unused86>": 188,
      "<unused87>": 189,
      "<unused88>": 190,
      "<unused89>": 191,
      "<unused90>": 192,
      "<unused91>": 193,
      "<unused92>": 194,
      "<unused93>": 195,
      "<unused94>": 196,
      "<unused95>": 197,
      "<unused96>": 198,
      "<unused97>": 199,
      "<unused98>": 200,
      "<unused99>": 201,
      "<unused100>": 202,
      "<unused101>": 203,
      "<unused102>": 204,
      "<unused103>": 205,
      "<unused104>": 206,
      "<unused105>": 207,
      "<unused106>": 208,
      "<unused107>": 209,
      "<unused108>": 210,
      "<unused109>": 211,
      "<unused110>": 212,
      "<unused111>": 213,
      "<unused112>": 214,
      "<unused113>": 215,
      "<unused114>": 216,
      "<unused115>": 217,
      "<unused116>": 218,
      "<unused117>": 219,
      "<unused118>": 220,
      "<unused119>": 221,
      "<unused120>": 222,
      "<unused121>": 223,
      "<unused122>": 224,
      "<unused123>": 225,
      "<unused124>": 226,
      "<unused125>": 227,
      "<unused126>": 228,
      "<unused127>": 229,
      "<unused128>": 230,
      "<unused129>": 231,
      "<unused130>": 232,
      "<unused131>": 233,
      "<unused132>": 234,
      "<unused133>": 235,
      "<unused134>": 236,
      "<unused135>": 237,
      "<unused136>": 238,
      "<unused137>": 239,
      "<unused138>": 240,
      "<unused139>": 241,
      "<unused140>": 242,
      "<unused141>": 243,
      "<unused142>": 244,
      "<unused143>": 245,
      "<unused144>": 246,
      "<unused145>": 247,
      "<unused146>": 248,
      "<unused147>": 249,
      "<unused148>": 250,
      "<unused149>": 251,
      "<unused150>": 252,
      "<unused151>": 253,
      "<unused152>": 254,
      "<unused153>": 255,
      "<unused154>": 256,
      "<unused155>": 257,
      "<unused156>": 258,
      "<unused157>": 259,
      "<unused158>": 260,
      "<unused159>": 261,
      "<unused160>": 262,
      "<unused161>": 263,
      "<unused162>": 264,
      "<unused163>": 265,
      "<unused164>": 266,
      "<unused165>": 267,
      "<unused166>": 268,
      "<unused167>": 269,
      "<unused168>": 270,
      "<unused169>": 271,
      "<unused170>": 272,
      "<unused171>": 273,
      "<unused172>": 274,
      "<unused173>": 275,
      "<unused174>": 276,
      "<unused175>": 277,
      "<unused176>": 278,
      "<unused177>": 279,
      "<unused178>": 280,
      "<unused179>": 281,
      "<unused180>": 282,
      "<unused181>": 283,
      "<unused182>": 284,
      "<unused183>": 285,
      "<unused184>": 286,
      "<unused185>": 287,
      "<unused186>": 288,
      "<unused187>": 289,
      "<unused188>": 290,
      "<unused189>": 291,
      "<unused190>": 292,
      "<unused191>": 293,
      "<unused192>": 294,
      "<unused193>": 295,
      "<unused194>": 296,
      "<unused195>": 297,
      "<unused196>": 298,
      "<unused197>": 299,
      "<unused198>": 300,
      "<unused199>": 301,
      "<unused200>": 302,
      "<unused201>": 303,
      "<unused202>": 304,
      "<unused203>": 305,
      "<unused204>": 306,
      "<unused205>": 307,
      "<unused206>": 308,
      "<unused207>": 309,
      "<unused208>": 310,
      "<unused209>": 311,
      "<unused210>": 312,
      "<unused211>": 313,
      "<unused212>": 314,
      "<unused213>": 315,
      "<unused214>": 316,
      "<unused215>": 317,
      "<unused216>": 318,
      "<unused217>": 319,
      "<unused218>": 320,
      "<unused219>": 321,
      "<unused220>": 322,
      "<unused221>": 323,
      "<unused222>": 324,
      "<unused223>": 325,
      "<unused224>": 326,
      "<unused225>": 327,
      "<unused226>": 328,
      "<unused227>": 329,
      "<unused228>": 330,
      "<unused229>": 331,
      "<unused230>": 332,
      "<unused231>": 333,
      "<unused232>": 334,
      "<unused233>": 335,
      "<unused234>": 336,
      "<unused235>": 337,
      "<unused236>": 338,
      "<unused237>": 339,
      "<unused238>": 340,
      "<unused239>": 341,
      "<unused240>": 342,
      "<unused241>": 343,
      "<unused242>": 344,
      "<unused243>": 345,
      "<unused244>": 346,
      "<unused245>": 347,
      "<unused246>": 348,
      "<unused247>": 349,
      "<unused248>": 350,
      "<unused249>": 351,
      "<unused250>": 352,
      "<unused251>": 353,
      "<unused252>": 354,
      "<unused253>": 355,
      "<unused254>": 356,
      "<unused255>": 357,
      "<unused256>": 358,
      "<unused257>": 359,
      "<unused258>": 360,
      "<unused259>": 361,
      "!": 362,
      "\"": 363,
      "#": 364,
      "$": 365,
      "%": 366,
      "&": 367,
      "'": 368,
      "(": 369,
      ")": 370,
      "*": 371,
      "+": 372,
      ",": 373,
      "-": 374,
      ".": 375,
      "/": 376,
      "0": 377,
      "1": 378,
      "2": 379,
      "3": 380,
      "4": 381,
      "5": 382,
      "6": 383,
      "7": 384,
      "8": 385,
      "9": 386,
      ":": 387,
      ";": 388,
      "<": 389,
      "=": 390,
      ">": 391,
      "?": 392,
      "@": 393,
      "A": 394,
      "B": 395,
      "C": 396,
      "D": 397,
      "E": 398,
      "F": 399,
      "G": 400,
      "H": 401,
      "I": 402,
      "J": 403,
      "K": 404,
      "L": 405,
      "M": 406,
      "N": 407,
      "O": 408,
      "P": 409,
      "Q": 410,
      "R": 411,
      "S": 412,
      "T": 413,
      "U": 414,
      "V": 415,
      "W": 416,
      "X": 417,
      "Y": 418,
      "Z": 419,
      "[": 420,
      "\\": 421,
      "]": 422,
      "^": 423,
      "_": 424,
      "`": 425,
      "a": 426,
      "b": 427,
      "c": 428,
      "d": 429,
      "e": 430,
      "f": 431,
      "g": 432,
      "h": 433,
      "i": 434,
      "j": 435,
      "k": 436,
      "l": 437,
      "m": 438,
      "n": 439,
      "o": 440,
      "p": 441,
      "q": 442,
      "r": 443,
      "s": 444,
      "t": 445,
      "u": 446,
      "v": 447,
      "w": 448,
      "x": 449,
      "y": 450,
      "z": 451,
      "{": 452,
      "|": 453,
      "}": 454,
      "~": 455,
      "¡": 456,
      "¢": 457,
      "£": 458,
      "¤": 459,
      "¥": 460,
      "¦": 461,
      "§": 462,
      "¨": 463,
      "©": 464,
      "ª": 465,
      "«": 466,
      "¬": 467,
      "®": 468,
      "¯": 469,
      "°": 470,
      "±": 471,
      "²": 472,
      "³": 473,
      "´": 474,
      "µ": 475,
      "¶": 476,
      "·": 477,
      "¸": 478,
      "¹": 479,
      "º": 480,
      "»": 481,
      "¼": 482,
      "½": 483,
      "¾": 484,
      "¿": 485,
      "À": 486,
      "Á": 487,
      "Â": 488,
      "Ã": 489,
      "Ä": 490,
      "Å": 491,
      "Æ": 492,
      "Ç": 493,
      "È": 494,
      "É": 495,
      "Ê": 496,
      "Ë": 497,
      "Ì": 498,
      "Í": 499,
      "Î": 500,
      "Ï": 501,
      "Ð": 502,
      "Ñ": 503,
      "Ò": 504,
      "Ó": 505,
      "Ô": 506,
      "Õ": 507,
      "Ö": 508,
      "×": 509,
      "Ø": 510,
      "Ù": 511,
      "Ú": 512,
      "Û": 513,
      "Ü": 514,
      "Ý": 515,
      "Þ": 516,
      "ß": 517,
      "à": 518,
      "á": 519,
      "â": 520,
      "ã": 521,
      "ä": 522,
      "å": 523,
      "æ": 524,
      "ç": 525,
      "è": 526,
      "é": 527,
      "ê": 528,
      "ë": 529,
      "ì": 530,
      "í": 531,
      "î": 532,
      "ï": 533,
      "ð": 534,
      "ñ": 535,
      "ò": 536,
      "ó": 537,
      "ô": 538,
      "õ": 539,
      "ö": 540,
      "÷": 541,
      "ø": 542,
      "ù": 543,
      "ú": 544,
      "û": 545,
      "ü": 546,
      "ý": 547,
      "þ": 548,
      "ÿ": 549,
      "Ā": 550,
      "ā": 551,
      "Ă": 552,
      "ă": 553,
      "Ą": 554,
      "ą": 555,
      "Ć": 556,
      "ć": 557,
      "Ĉ": 558,
      "ĉ": 559,
      "Ċ": 560,
      "ċ": 561,
      "Č": 562,
      "č": 563,
      "Ď": 564,
      "ď": 565,
      "Đ": 566,
      "đ": 567,
      "Ē": 568,
      "ē": 569,
      "Ĕ": 570,
      "ĕ": 571,
      "Ė": 572,
      "ė": 573,
      "Ę": 574,
      "ę": 575,
      "Ě": 576,
      "ě": 577,
      "Ĝ": 578,
      "ĝ": 579,
      "Ğ": 580,
      "ğ": 581,
      "Ġ": 582,
      "ġ": 583,
      "Ģ": 584,
      "ģ": 585,
      "Ĥ": 586,
      "ĥ": 587,
      "Ħ": 588,
      "ħ": 589,
      "Ĩ": 590,
      "ĩ": 591,
      "Ī": 592,
      "ī": 593,
      "Ĭ": 594,
      "ĭ": 595,
      "Į": 596,
      "į": 597,
      "İ": 598,
      "ı": 599,
      "Ĳ": 600,
      "ĳ": 601,
      "Ĵ": 602,
      "ĵ": 603,
      "Ķ": 604,
      "ķ": 605,
      "ĸ": 606,
      "Ĺ": 607,
      "ĺ": 608,
      "Ļ": 609,
      "ļ": 610,
      "Ľ": 611,
      "ľ": 612,
      "Ŀ": 613,
      "ŀ": 614,
      "Ł": 615,
      "ł": 616,
      "Ń": 617,
      "th": 618,
      "Ġa": 619,
      "Ġí": 620,
      "in": 621,
      "Ġth": 622,
      "er": 623,
      "Ġ,": 624,
      "ëĭ": 625,
      "on": 626,
      "Ġs": 627,
      "re": 628,
      "Ġthe": 629,
      "Ġíķ": 630,
      "ìĹ": 631,
      "at": 632,
      "Ŀ´": 633,
      "ìĿ´": 634,
      "en": 635,
      "Ġo": 636,
      "Ġc": 637,
      "ê°": 638,
      "ìŀ": 639,
      "ĠìĹ": 640,
      "ê³": 641,
      "Ġw": 642,
      "ëĭ¤": 643,
      "Ġp": 644,
      "es": 645,
      "ëĬ": 646,
      "or": 647,
      "is": 648,
      "ed": 649,
      "ĠìĿ´": 650,
      "Ġf": 651,
      "ìł": 652,
      "ìķ": 653,
      "ì§": 654,
      "Ġb": 655,
      "an": 656,
      "ëĬĶ": 657,
      "al": 658,
      "ìĦ": 659,
      "Ġm": 660,
      "Ġd": 661,
      "Ġan": 662,
      "ĠëĬĶ": 663,
      "ti": 664,
      "to": 665,
      "Ġin": 666,
      "Ġê³": 667,
      "ing": 668,
      "Ġê°": 669,
      "Ġof": 670,
      "ë§": 671,
      "Ġ-": 672,
      "ìĭ": 673,
      "ar": 674,
      "ìļ": 675,
      "ê²": 676,
      "Ġìŀ": 677,
      "Ġh": 678,
      "ou": 679,
      "ĠìĹĲ": 680,
      "Ġto": 681,
      "ëĤ": 682,
      "Ġìķ": 683,
      "ê¸": 684,
      "ëı": 685,
      "Ġand": 686,
      "le": 687,
      "Ġ(": 688,
      "as": 689,
      "it": 690,
      "Ġíķĺ": 691,
      "ìĸ": 692,
      "Ġ)": 693,
      "Ġëĭ¤": 694,
      "ĿĦ": 695,
      "ìĿĦ": 696,
      "ro": 697,
      "ì§Ģ": 698,
      "ĠìĿĦ": 699,
      "ic": 700,
      "ë¡": 701,
      "ëĵ": 702,
      "Ġìł": 703,
      "Ġê³ł": 704,
      "Ġê²": 705,
      "ë°": 706,
      "ìľ": 707,
      "Ġë§": 708,
      "Ġn": 709,
      "Ġre": 710,
      "Ġe": 711,
      "ìĦľ": 712,
      "Ġê°Ģ": 713,
      "Ŀ¼": 714,
      "ë¡ľ": 715,
      "Ġl": 716,
      "ë¦": 717,
      "el": 718,
      "ìĤ": 719,
      "ëıĦ": 720,
      "ìĸ´": 721,
      "ê¸°": 722,
      "ent": 723,
      "ë³": 724,
      "ë¥": 725,
      "ion": 726,
      "Ġìĭ": 727,
      "ìĺ": 728,
      "Ŀĺ": 729,
      "ìĿĺ": 730,
      "ĿĢ": 731,
      "ìĿĢ": 732,
      "ëĭĪ": 733,
      "ìĬ": 734,
      "Ġìľ": 735,
      "ĠìĿĢ": 736,
      "ë¶": 737,
      "Ġ\"": 738,
      "ëį": 739,
      "ìļĶ": 740,
      "Ġ'": 741,
      "om": 742,
      "ac": 743,
      "Ġëĵ": 744,
      "Ġg": 745,
      "ec": 746,
      "us": 747,
      "êµ": 748,
      "ìĥ": 749,
      "ê·": 750,
      "ĠìĿĺ": 751,
      "ĠT": 752,
      "Ġ_": 753,
      "ĠëĤ": 754,
      "Ġë°": 755,
      "Ġ:": 756,
      "íķ": 757,
      "et": 758,
      "il": 759,
      "ë¦¬": 760,
      "ë¬": 761,
      "ìĪ": 762,
      "ë©": 763,
      "Ġíķľ": 764,
      "ìĤ¬": 765,
      "id": 766,
      "Ġìĸ´": 767,
      "ĠI": 768,
      "ĠëıĦ": 769,
      "tr": 770,
      "ĠS": 771,
      "Ġis": 772,
      "ĠìŀĪ": 773,
      "Ġë¥": 774,
      "Ġì§Ģ": 775,
      "tion": 776,
      "ve": 777,
      "Ġë³": 778,
      "Ġë¥¼": 779,
      "ĠA": 780,
      "ation": 781,
      "ol": 782,
      "ig": 783,
      "ĠC": 784,
      "ĠìķĦ": 785,
      "ëł": 786,
      "Ġâ": 787,
      "am": 788,
      "ëĿ¼": 789,
      "ur": 790,
      "Ġfor": 791,
      "ëª": 792,
      "ìĽ": 793,
      "Ġìĺ": 794,
      "ly": 795,
      "ì£": 796,
      "Ŀ¸": 797,
      "ìĿ¸": 798,
      "ê·¸": 799,
      "ìĪĺ": 800,
      "Ġ=": 801,
      "ow": 802,
      "he": 803,
      "os": 804,
      "ê±": 805,
      "Ġê¸°": 806,
      "Ġon": 807,
      "im": 808,
      "ĮĢ": 809,
      "ĠâĢ": 810,
      "ëŀ": 811,
      "Ġìľ¼": 812,
      "ter": 813,
      "ad": 814,
      "un": 815,
      "ëĮĢ": 816,
      "Ġthat": 817,
      "ver": 818,
      "ëĭĪëĭ¤": 819,
      "ith": 820,
      "Ġbe": 821,
      "ut": 822,
      "ì£¼": 823,
      "ul": 824,
      "Ġë¶": 825,
      "Ġëĵ¤": 826,
      "ot": 827,
      "ce": 828,
      "Ġy": 829,
      "ìĬ¤": 830,
      "ì¹": 831,
      "ì²": 832,
      "ì°": 833,
      "Ġìĭľ": 834,
      "ay": 835,
      "ĠìĦ": 836,
      "ëĲ": 837,
      "ë©´": 838,
      "Ġwh": 839,
      "ĠëĲ": 840,
      "Ġ/": 841,
      "ìĨ": 842,
      "Ġcon": 843,
      "Ġíķ´": 844,
      "ë²": 845,
      "Ġë³´": 846,
      "ëŁ": 847,
      "ĠìĤ¬": 848,
      "ìĻ": 849,
      "Ġas": 850,
      "Ġwith": 851,
      "ĠM": 852,
      "ê³ł": 853,
      "ĠP": 854,
      "Ġê·¸": 855,
      "Ġr": 856,
      "Ġv": 857,
      "ìĿ¼": 858,
      "Ġìĥ": 859,
      "Ġëį": 860,
      "ir": 861,
      "Ġpro": 862,
      "Ġ!": 863,
      "ë¹": 864,
      "ch": 865,
      "Ġëª": 866,
      "od": 867,
      "ĠìĪĺ": 868,
      "Ġê²Į": 869,
      "Ġal": 870,
      "if": 871,
      "Ġê±": 872,
      "Ġìľ¼ë¡ľ": 873,
      "Ġst": 874,
      "ì¤": 875,
      "ĠB": 876,
      "em": 877,
      "Ġëĭ": 878,
      "ëĦ": 879,
      "ere": 880,
      "ĠëĤĺ": 881,
      "--": 882,
      "Ġíĸ": 883,
      "ag": 884,
      "Ġit": 885,
      "Ġ*": 886,
      "êµ¬": 887,
      "ê¹": 888,
      "ate": 889,
      "ab": 890,
      "Ġë¡ľ": 891,
      "um": 892,
      "ĠìĿ¸": 893,
      "ts": 894,
      "Ġ\\": 895,
      "ëį°": 896,
      "Ġì§": 897,
      "ĠF": 898,
      "Ġcom": 899,
      "pp": 900,
      "Ġì£¼": 901,
      "ëĤĺ": 902,
      "ĠD": 903,
      "Ġyou": 904,
      "ê°Ģ": 905,
      "qu": 906,
      "st": 907,
      "Ġ?": 908,
      "ì¡": 909,
      "Ġex": 910,
      "Ġ}": 911,
      "ĠìĻ": 912,
      "Ġor": 913,
      "Ġ$": 914,
      "ĠëĮĢ": 915,
      "ìĽĲ": 916,
      "ë¯": 917,
      "ëħ": 918,
      "ĠH": 919,
      "ĠìĹĲìĦľ": 920,
      "ain": 921,
      "res": 922,
      "ers": 923,
      "Ġê²ĥ": 924,
      "Ġwas": 925,
      "Ġë§Į": 926,
      "ì¢": 927,
      "Ġë©´": 928,
      "ĠR": 929,
      "ĠëĿ¼": 930,
      "ë¬´": 931,
      "ĠíĸĪ": 932,
      "ĠW": 933,
      "ess": 934,
      "ĠëĦ": 935,
      "ì¶": 936,
      "Ġare": 937,
      "ĠN": 938,
      "ĠL": 939,
      "Ġ{": 940,
      "ìŀ¥": 941,
      "ìŀĲ": 942,
      "Ġì¤": 943,
      "ĠThe": 944,
      "Ġì°": 945,
      "Ġde": 946,
      "Ġsu": 947,
      "ĠìŀĲ": 948,
      "igh": 949,
      "Ġ]": 950,
      "..": 951,
      "Ġat": 952,
      "rom": 953,
      "ìĭľ": 954,
      "ĠìĿ¼": 955,
      "Ġby": 956,
      "ĠìĹĪ": 957,
      "Ġê³¼": 958,
      "ĠìĬ": 959,
      "ity": 960,
      "ë¹Ħ": 961,
      "ìļ°": 962,
      "se": 963,
      "ìĨĮ": 964,
      "Ġk": 965,
      "ĠE": 966,
      "Ġ;": 967,
      "and": 968,
      "Ġì¢": 969,
      "ĠëĲĺ": 970,
      "oc": 971,
      "oun": 972,
      "ment": 973,
      "Ġ[": 974,
      "ë¬¸": 975,
      "ld": 976,
      "ëıĻ": 977,
      "ĠG": 978,
      "est": 979,
      "Ġus": 980,
      "ore": 981,
      "Ġtr": 982,
      "ê´": 983,
      "end": 984,
      "µëĭĪëĭ¤": 985,
      "ri": 986,
      "ĠìłĦ": 987,
      "ĠíĻ": 988,
      "Ġë¶Ģ": 989,
      "ë¨": 990,
      "Ġë²": 991,
      "Ġìłķ": 992,
      "Ġch": 993,
      "Ġha": 994,
      "op": 995,
      "ap": 996,
      "Ġ~": 997,
      "Ġì²": 998,
      "íķ´": 999,
      "Ġsh": 1000,
      "uc": 1001,
      "ìłķ": 1002,
      "ill": 1003,
      "Ġthis": 1004,
      "Ġfrom": 1005,
      "ê¹Į": 1006,
      "ëĶ": 1007,
      "ì¹ĺ": 1008,
      "ak": 1009,
      "ĠâĢĻ": 1010,
      "íĻ": 1011,
      "tic": 1012,
      "íĬ": 1013,
      "Ġne": 1014,
      "Ġìłģ": 1015,
      "te": 1016,
      "Ġnot": 1017,
      "ìļ©": 1018,
      "Ġse": 1019,
      "ther": 1020,
      "Ġ..": 1021,
      "Ġê±°": 1022,
      "ìķĦ": 1023,
      "Ġwe": 1024,
      "ure": 1025,
      "Ġac": 1026,
      "Ġle": 1027,
      "Ġhe": 1028,
      "ìĥģ": 1029,
      "ëŁ¬": 1030,
      "êµŃ": 1031,
      "ted": 1032,
      "ëķ": 1033,
      "ud": 1034,
      "ĠìĹ¬": 1035,
      "Ġíĺ": 1036,
      "ãģ": 1037,
      "ĠìĬµëĭĪëĭ¤": 1038,
      "ĿĮ": 1039,
      "ìĿĮ": 1040,
      "Ġun": 1041,
      "ì¡°": 1042,
      "ë§Į": 1043,
      "íĥ": 1044,
      "ĠO": 1045,
      "ĠëĬĶëį°": 1046,
      "ĠëįĶ": 1047,
      "Ġë§Ī": 1048,
      "Ġsp": 1049,
      "ìłľ": 1050,
      "Ġíķł": 1051,
      "Ġìĺ¤": 1052,
      "ë¯¸": 1053,
      "íĺ": 1054,
      "ant": 1055,
      "Ġj": 1056,
      "iv": 1057,
      "Ġìłľ": 1058,
      "Ġë¨": 1059,
      "ê²Į": 1060,
      "ëł¤": 1061,
      "ell": 1062,
      "ated": 1063,
      "ì¦": 1064,
      "Ġëķ": 1065,
      "pl": 1066,
      "íĬ¸": 1067,
      "Ġ>": 1068,
      "Ġu": 1069,
      "tim": 1070,
      "ge": 1071,
      "Ġhave": 1072,
      "ty": 1073,
      "ë£": 1074,
      "íķľ": 1075,
      "all": 1076,
      "Ġres": 1077,
      "ist": 1078,
      "ib": 1079,
      "ĠëĤ´": 1080,
      "ë¶Ģ": 1081,
      "ĠìĻĢ": 1082,
      "Ġëħ": 1083,
      "ĠìķĪ": 1084,
      "ine": 1085,
      "ort": 1086,
      "our": 1087,
      "ëĳ": 1088,
      "Ġê¸": 1089,
      "ff": 1090,
      "og": 1091,
      "ê°Ħ": 1092,
      "Ġcan": 1093,
      "ê´Ģ": 1094,
      "ould": 1095,
      "Ġ+": 1096,
      "Ġim": 1097,
      "Ġìĸ": 1098,
      "Ġë©": 1099,
      "ĠU": 1100,
      "Ġcl": 1101,
      "ight": 1102,
      "ich": 1103,
      "Ġì¢ĭ": 1104,
      "ĠëķĮ": 1105,
      "Ġëª¨": 1106,
      "ĠìĹĨ": 1107,
      "ĠTh": 1108,
      "Ġme": 1109,
      "Ġìŀħ": 1110,
      "per": 1111,
      "ĠìĥĿ": 1112,
      "ë¬¼": 1113,
      "ome": 1114,
      "ally": 1115,
      "íĸ": 1116,
      "ëŀĺ": 1117,
      "ard": 1118,
      "Ġê°Ļ": 1119,
      "ue": 1120,
      "ame": 1121,
      "íŀ": 1122,
      "ĠIn": 1123,
      "ĠìĦľ": 1124,
      "ìļ´": 1125,
      "Ġì¤ĳ": 1126,
      "iz": 1127,
      "age": 1128,
      "Ġå": 1129,
      "íķĺ": 1130,
      "Ġcomp": 1131,
      "Ħ°": 1132,
      "Ġad": 1133,
      "ack": 1134,
      "Ġì¶": 1135,
      "----": 1136,
      "ìķ¼": 1137,
      "Ġpl": 1138,
      "ĠìĦ¸": 1139,
      "Ġen": 1140,
      "der": 1141,
      "Ġìĥģ": 1142,
      "Ġpar": 1143,
      "ĠìľĦ": 1144,
      "ĠìķĬ": 1145,
      "ì§Ħ": 1146,
      "ëĵľ": 1147,
      "ies": 1148,
      "Ġab": 1149,
      "ĠJ": 1150,
      "Ġë¶Ħ": 1151,
      "ĠìĤ": 1152,
      "able": 1153,
      "Ġêµ¬": 1154,
      "are": 1155,
      "Ġë°Ķ": 1156,
      "íŀĪ": 1157,
      "ĠìĬ¤": 1158,
      "ìłĦ": 1159,
      "ive": 1160,
      "ļĮ": 1161,
      "Ġë¨¹": 1162,
      "ĠíĮ": 1163,
      "gh": 1164,
      "ie": 1165,
      "Ġdis": 1166,
      "ass": 1167,
      "ect": 1168,
      "Ġíı": 1169,
      "ence": 1170,
      "Ġìĸ´ìļĶ": 1171,
      "Ġê³µ": 1172,
      "íĦ°": 1173,
      "ans": 1174,
      "Ġìĭł": 1175,
      "Ġall": 1176,
      "Ġar": 1177,
      "orm": 1178,
      "ĠíĶ": 1179,
      "Ġë§İ": 1180,
      "ial": 1181,
      "Ġì¡°": 1182,
      "ĠìĨĮ": 1183,
      "Ġapp": 1184,
      "íĶ": 1185,
      "ase": 1186,
      "Ġì¹": 1187,
      "Ġê²½": 1188,
      "out": 1189,
      "Ġ^": 1190,
      "ĠÂ": 1191,
      "ĠëĶ": 1192,
      "ound": 1193,
      "Ġwere": 1194,
      "Ġwhich": 1195,
      "Ĩµ": 1196,
      "Ġ%": 1197,
      "ide": 1198,
      "ip": 1199,
      "ë§Ī": 1200,
      "ëĳĲ": 1201,
      "Ġë¹Ħ": 1202,
      "fer": 1203,
      "Ġíĥ": 1204,
      "Ġwor": 1205,
      "ign": 1206,
      "ìħ": 1207,
      "Ġê°ľ": 1208,
      "Ġëįĺ": 1209,
      "ìĦ±": 1210,
      "ach": 1211,
      "ĠìĽĲ": 1212,
      "ous": 1213,
      "one": 1214,
      "ëģ": 1215,
      "Ġë§Ĳ": 1216,
      "Ġë": 1217,
      "ok": 1218,
      "ĽĦ": 1219,
      "ģ¬": 1220,
      "Ġì§Ħ": 1221,
      "Ġëĵ±": 1222,
      "íĮ": 1223,
      "Ġbut": 1224,
      "ê¸Ī": 1225,
      "ĠK": 1226,
      "ĠëĭĪ": 1227,
      "ì´": 1228,
      "ĠìłĢ": 1229,
      "ath": 1230,
      "ost": 1231,
      "ations": 1232,
      "Ġhas": 1233,
      "ë¥´": 1234,
      "ìĺ¤": 1235,
      "ough": 1236,
      "ition": 1237,
      "av": 1238,
      "Ġi": 1239,
      "==": 1240,
      "ong": 1241,
      "ì½": 1242,
      "Ġinc": 1243,
      "êµĲ": 1244,
      "ĠìĽ": 1245,
      "ê°ģ": 1246,
      "Ġcont": 1247,
      "Ġì§Ģë§Į": 1248,
      "ary": 1249,
      "ep": 1250,
      "ire": 1251,
      "Ġdo": 1252,
      "áĦ": 1253,
      "ìĭł": 1254,
      "íĻĶ": 1255,
      "ind": 1256,
      "ìĹħ": 1257,
      "elf": 1258,
      "act": 1259,
      "ĠëĦ¤": 1260,
      "ance": 1261,
      "Ġx": 1262,
      "Ġ#": 1263,
      "ĠìĦ±": 1264,
      "ĠëĲľ": 1265,
      "Ġqu": 1266,
      "Ġper": 1267,
      "ens": 1268,
      "Ġtim": 1269,
      "ik": 1270,
      "ë¶Ħ": 1271,
      "ents": 1272,
      "Ġout": 1273,
      "Ġhis": 1274,
      "Ġê¹Į": 1275,
      "Ġwill": 1276,
      "Ġìķĺ": 1277,
      "Ġìľł": 1278,
      "ear": 1279,
      "ë³´": 1280,
      "Ġìļ°": 1281,
      "íĸī": 1282,
      "Ġgr": 1283,
      "ber": 1284,
      "Ġpre": 1285,
      "ìĭĿ": 1286,
      "ĠV": 1287,
      "ĠìĺĪ": 1288,
      "ast": 1289,
      "Ġgo": 1290,
      "ress": 1291,
      "Ġup": 1292,
      "ust": 1293,
      "duc": 1294,
      "ction": 1295,
      "Ġë¬´": 1296,
      "ĠëĬ": 1297,
      "ub": 1298,
      "Ġë°©": 1299,
      "Ġone": 1300,
      "ia": 1301,
      "ĠìĦł": 1302,
      "ace": 1303,
      "so": 1304,
      "pe": 1305,
      "Ġæ": 1306,
      "ì±": 1307,
      "ile": 1308,
      "Ġê²ł": 1309,
      "Ġê´Ģ": 1310,
      "vel": 1311,
      "ose": 1312,
      "Ġëı": 1313,
      "Ġyour": 1314,
      "ice": 1315,
      "Ġ**": 1316,
      "ĠìĨ": 1317,
      "©ëĭĪëĭ¤": 1318,
      "ory": 1319,
      "The": 1320,
      "Ġno": 1321,
      "ĠëĨ": 1322,
      "Ġë¯¸": 1323,
      "ëŀĮ": 1324,
      "ìĹ¬": 1325,
      "ìĤ°": 1326,
      "Ġstr": 1327,
      "ĠìļĶ": 1328,
      "Ġso": 1329,
      "Ġev": 1330,
      "ëĤ´": 1331,
      "ìĭ¤": 1332,
      "iti": 1333,
      "ail": 1334,
      "ãĤ": 1335,
      "ìķĪ": 1336,
      "ĠìĹ°": 1337,
      "Ġãģ": 1338,
      "ëŀĳ": 1339,
      "form": 1340,
      "Ġê·": 1341,
      "ĠìŀħëĭĪëĭ¤": 1342,
      "Ġimp": 1343,
      "Ġsc": 1344,
      "Ġë¹": 1345,
      "Ġê¹Įì§Ģ": 1346,
      "Ġëĵľ": 1347,
      "ì»": 1348,
      "Ġê±´": 1349,
      "ëŁ°": 1350,
      "Ġtheir": 1351,
      "Ġì°¨": 1352,
      "Ġìŀĺ": 1353,
      "Ġë§Ľ": 1354,
      "Ġthey": 1355,
      "ëłĪ": 1356,
      "ical": 1357,
      "Ġë©°": 1358,
      "ite": 1359,
      "ĠìķĮ": 1360,
      "Ġinter": 1361,
      "Ġmore": 1362,
      "ìĶ": 1363,
      "Ġsome": 1364,
      "ĠâĢĿ": 1365,
      "ang": 1366,
      "Ġíķľëĭ¤": 1367,
      "ĠëıĻ": 1368,
      "ë¯¼": 1369,
      "Ġcons": 1370,
      "ëĵ¤": 1371,
      "Ġìĭ¤": 1372,
      "ll": 1373,
      "Ġë°Ľ": 1374,
      "Ġ|": 1375,
      "Ġìŀ¥": 1376,
      "Ġhad": 1377,
      "ish": 1378,
      "ê»": 1379,
      "Ġman": 1380,
      "ct": 1381,
      "ata": 1382,
      "ys": 1383,
      "ìĥĿ": 1384,
      "ĠëĦĪ": 1385,
      "Ġbo": 1386,
      "ê±°": 1387,
      "Ġê¹": 1388,
      "urn": 1389,
      "ord": 1390,
      "íĴ": 1391,
      "ors": 1392,
      "ĠëħĦ": 1393,
      "ake": 1394,
      "Ġtime": 1395,
      "ĠY": 1396,
      "own": 1397,
      "ëł¥": 1398,
      "tw": 1399,
      "ì²´": 1400,
      "ĠíĬ": 1401,
      "xt": 1402,
      "Ġê³Ħ": 1403,
      "Ġmod": 1404,
      "very": 1405,
      "Ġ=\"": 1406,
      "ely": 1407,
      "ond": 1408,
      "Ġalso": 1409,
      "Ġthere": 1410,
      "ìĭ¬": 1411,
      "Ġag": 1412,
      "ê³Ħ": 1413,
      "Ġro": 1414,
      "ìłĢ": 1415,
      "íļĮ": 1416,
      "Ġif": 1417,
      "ĠìĥĿê°ģ": 1418,
      "Ġíİ": 1419,
      "ìľł": 1420,
      "Ġlo": 1421,
      "Ġind": 1422,
      "Ġì´": 1423,
      "ult": 1424,
      "ks": 1425,
      "cess": 1426,
      "Ġpr": 1427,
      "erv": 1428,
      "Ġë°ľ": 1429,
      "ëĭ¨": 1430,
      "Ġê°Ĳ": 1431,
      "Ġ<": 1432,
      "ìļ¸": 1433,
      "íİ": 1434,
      "ë¥¸": 1435,
      "tions": 1436,
      "ìĦł": 1437,
      "Ġob": 1438,
      "Ġget": 1439,
      "ren": 1440,
      "Ġbeen": 1441,
      "ëłĩ": 1442,
      "ons": 1443,
      "ãĥ": 1444,
      "ree": 1445,
      "Ġëĭ¤ê³ł": 1446,
      "Ġrec": 1447,
      "Ġë´": 1448,
      "ef": 1449,
      "Ġbet": 1450,
      "Ġë¬¸": 1451,
      "ĠíĽĦ": 1452,
      "enc": 1453,
      "Ġass": 1454,
      "aus": 1455,
      "Ġë©´ìĦľ": 1456,
      "Ġë²Ī": 1457,
      "ates": 1458,
      "ĺĲ": 1459,
      "ìµ": 1460,
      "íģ¬": 1461,
      "Ġì£": 1462,
      "Ġco": 1463,
      "Ġother": 1464,
      "ë£¨": 1465,
      "ĠìĤ¬ëŀĮ": 1466,
      "ĠëĪ": 1467,
      "Ġover": 1468,
      "ì¦Ŀ": 1469,
      "Ġíķ¨": 1470,
      "ìµľ": 1471,
      "ë£Į": 1472,
      "ater": 1473,
      "íı": 1474,
      "low": 1475,
      "Ġdes": 1476,
      "gr": 1477,
      "ĠìĿĮ": 1478,
      "Ġsa": 1479,
      "Ġsy": 1480,
      "Ġíķ©ëĭĪëĭ¤": 1481,
      "art": 1482,
      "ĠíĨµ": 1483,
      "Ġë§¤": 1484,
      "Ġìĺģ": 1485,
      "Ġwhen": 1486,
      "ĠíĻĶ": 1487,
      "ĠâĢľ": 1488,
      "ike": 1489,
      "ëĭ¹": 1490,
      "Ġany": 1491,
      "Ġam": 1492,
      "lic": 1493,
      "Ġfe": 1494,
      "ìĦ¸": 1495,
      "Ġcol": 1496,
      "Ġwho": 1497,
      "Ġç": 1498,
      "Ġval": 1499,
      "Ġmy": 1500,
      "ple": 1501,
      "Ġfun": 1502,
      "Ġtw": 1503,
      "ì½Ķ": 1504,
      "ĠëĿ¼ê³ł": 1505,
      "Ġìħ": 1506,
      "Ġty": 1507,
      "Ġher": 1508,
      "ìĸĳ": 1509,
      "íĴĪ": 1510,
      "Ġsub": 1511,
      "Ġkn": 1512,
      "Ġabout": 1513,
      "Ġph": 1514,
      "ì¼": 1515,
      "Ġì²ĺ": 1516,
      "Ġop": 1517,
      "ĠìĪ": 1518,
      "Ġdif": 1519,
      "Ġìĸ´ìĦľ": 1520,
      "oin": 1521,
      "ëªħ": 1522,
      "Ġì§ĳ": 1523,
      "ph": 1524,
      "enti": 1525,
      "ëĤľ": 1526,
      "Ġwould": 1527,
      "Ġthan": 1528,
      "ë§Ĳ": 1529,
      "Ġ&": 1530,
      "Ġëĭ¹": 1531,
      "ê¶": 1532,
      "ĠIt": 1533,
      "turn": 1534,
      "Ġmo": 1535,
      "Ġte": 1536,
      "ĠCh": 1537,
      "ĳľ": 1538,
      "Ġnew": 1539,
      "Ġits": 1540,
      "ĠëĤ¨": 1541,
      "ĠêµŃ": 1542,
      "Ġì¹ĺ": 1543,
      "Ġcomm": 1544,
      "ĠìĹĲê²Į": 1545,
      "ĠëĳĲ": 1546,
      "Ġíķ´ìĦľ": 1547,
      "ê³¼": 1548,
      "Ġexp": 1549,
      "Ġrel": 1550,
      "ied": 1551,
      "Ġem": 1552,
      "ê²½": 1553,
      "Ġëĭĺ": 1554,
      "Ġsec": 1555,
      "Ġë¬¼": 1556,
      "ps": 1557,
      "Ġpos": 1558,
      "Ġìĭ¶": 1559,
      "íĥĢ": 1560,
      "ra": 1561,
      "ĠëĦĪë¬´": 1562,
      "íħ": 1563,
      "Ġë°°": 1564,
      "Ġìĺ¬": 1565,
      "ìŀĳ": 1566,
      "ings": 1567,
      "ë¡Ŀ": 1568,
      "we": 1569,
      "irst": 1570,
      "ays": 1571,
      "Ġëĭ¨": 1572,
      "ĠAn": 1573,
      "ĠSt": 1574,
      "fter": 1575,
      "Ġgen": 1576,
      "ĠìĽĶ": 1577,
      "Ġëĭ¬": 1578,
      "ĠìķĦëĭĪ": 1579,
      "Ġë¶Ī": 1580,
      "ĠëĶ°": 1581,
      "Ġëª»": 1582,
      "Ġíı¬": 1583,
      "Ġadd": 1584,
      "ĠëĬĲ": 1585,
      "Ġì¶Ķ": 1586,
      "Ġë°ĺ": 1587,
      "Ġê°ķ": 1588,
      "Ġì±": 1589,
      "Ġìĭľê°Ħ": 1590,
      "Ġëģ": 1591,
      "Ġì»": 1592,
      "ëĬĺ": 1593,
      "vers": 1594,
      "ìľĦ": 1595,
      "lo": 1596,
      "ìŀ¬": 1597,
      "Ġset": 1598,
      "ê»ĺ": 1599,
      "ì°¨": 1600,
      "Ġìµľ": 1601,
      "Ġdata": 1602,
      "ĠëĦ¤ìļĶ": 1603,
      "Ġend": 1604,
      "ms": 1605,
      "ĠíĶ¼": 1606,
      "Ġour": 1607,
      "íĹ": 1608,
      "Ġrep": 1609,
      "Ġwork": 1610,
      "Ġdef": 1611,
      "reat": 1612,
      "Ġinto": 1613,
      "áĦı": 1614,
      "Ġìŀ¬": 1615,
      "ual": 1616,
      "ê³µ": 1617,
      "ĠëĺĲ": 1618,
      "ĠìĤ´": 1619,
      "ëĬ¥": 1620,
      "Ġbec": 1621,
      "tive": 1622,
      "Ġyear": 1623,
      "ific": 1624,
      "Ġtrans": 1625,
      "ari": 1626,
      "ĠêµĲ": 1627,
      "Ġìķ¼": 1628,
      "ë°©": 1629,
      "íĤ": 1630,
      "lud": 1631,
      "ĠíļĮ": 1632,
      "pt": 1633,
      "Ġëħ¸": 1634,
      "ĠÃ": 1635,
      "Ġstud": 1636,
      "Ġëªħ": 1637,
      "Ĩł": 1638,
      "ild": 1639,
      "ê²©": 1640,
      "ìĽĮ": 1641,
      "--------": 1642,
      "Ġhigh": 1643,
      "ìĹŃ": 1644,
      "ìĺģ": 1645,
      "ë¦Ħ": 1646,
      "ìłĲ": 1647,
      "Ġonly": 1648,
      "ry": 1649,
      "{\\": 1650,
      "ark": 1651,
      "Ġê²°": 1652,
      "Ġmay": 1653,
      "ë¦°": 1654,
      "Ġtwo": 1655,
      "ĠThis": 1656,
      "Ġreg": 1657,
      "ìĹ°": 1658,
      "ĠëįĶëĿ¼": 1659,
      "ĠWe": 1660,
      "Ġform": 1661,
      "Ġìŀĳ": 1662,
      "ne": 1663,
      "Ġlike": 1664,
      "Ġpe": 1665,
      "ì¸": 1666,
      "ìĨį": 1667,
      "ĠëķĮë¬¸": 1668,
      "In": 1669,
      "row": 1670,
      "Ġëĭ¤ëĬĶ": 1671,
      "Ġä": 1672,
      "íķĻ": 1673,
      "ĠWh": 1674,
      "tain": 1675,
      "Ġeff": 1676,
      "Ġdec": 1677,
      "Ġself": 1678,
      "ëª¨": 1679,
      "ased": 1680,
      "ting": 1681,
      "Ġê°Ħ": 1682,
      "Ġ\",": 1683,
      "ular": 1684,
      "Ġunder": 1685,
      "ĠìĺĢ": 1686,
      "ative": 1687,
      "Ġè": 1688,
      "ëĶĶ": 1689,
      "Ġfr": 1690,
      "Ġfirst": 1691,
      "iss": 1692,
      "ause": 1693,
      "ĠìłĲ": 1694,
      "Ġspec": 1695,
      "ëĵł": 1696,
      "Ġdiffer": 1697,
      "ì§ģ": 1698,
      "les": 1699,
      "ëłĩê²Į": 1700,
      "stem": 1701,
      "ink": 1702,
      "ĠíĺĦ": 1703,
      "Ġthem": 1704,
      "Ġinv": 1705,
      "Ġoff": 1706,
      "Ġprov": 1707,
      "íĭ": 1708,
      "ick": 1709,
      "ĠëĤł": 1710,
      "Ġacc": 1711,
      "ade": 1712,
      "Ġsuch": 1713,
      "anc": 1714,
      "Ġwhat": 1715,
      "ĠíĻķ": 1716,
      "ĠíĮĮ": 1717,
      "ft": 1718,
      "Ġë§İìĿ´": 1719,
      "arg": 1720,
      "Ġê±¸": 1721,
      "Ġthese": 1722,
      "Ġbl": 1723,
      "iew": 1724,
      "ìĵ": 1725,
      "ê·¼": 1726,
      "íĨµ": 1727,
      "ë°ľ": 1728,
      "ating": 1729,
      "eld": 1730,
      "ĠíķĻ": 1731,
      "Ġì¹´": 1732,
      "Ġpres": 1733,
      "Ġë¶ĢíĦ°": 1734,
      "Ġuse": 1735,
      "Ġëį°": 1736,
      "Ġid": 1737,
      "Ġë³´ëĭ¤": 1738,
      "Ġ',": 1739,
      "Ġìļ°ë¦¬": 1740,
      "ĠìĶ": 1741,
      "Ġdet": 1742,
      "Ġresp": 1743,
      "ìŀħ": 1744,
      "Ġhow": 1745,
      "Ġì£ł": 1746,
      "ĠíĥĢ": 1747,
      "Ġfunction": 1748,
      "Ġnum": 1749,
      "rough": 1750,
      "ëĥ": 1751,
      "ten": 1752,
      "ê¼": 1753,
      "Ġ@": 1754,
      "Ġshe": 1755,
      "ë§¤": 1756,
      "##": 1757,
      "ĠíĿ": 1758,
      "ëĸ": 1759,
      "ient": 1760,
      "Ġtype": 1761,
      "Ġrem": 1762,
      "Ġê³³": 1763,
      "ween": 1764,
      "ĠHe": 1765,
      "ë¦¬ê³ł": 1766,
      "ian": 1767,
      "Ġclass": 1768,
      "Ġins": 1769,
      "íĶĦ": 1770,
      "ility": 1771,
      "old": 1772,
      "ech": 1773,
      "ì²Ń": 1774,
      "ê±´": 1775,
      "lec": 1776,
      "Ġê¸¸": 1777,
      "Ġsign": 1778,
      "Ġwhere": 1779,
      "ì¤ĳ": 1780,
      "ĠìĦ¸ìļĶ": 1781,
      "Ġz": 1782,
      "tiv": 1783,
      "red": 1784,
      "Ġíģ": 1785,
      "cri": 1786,
      "Ġbetween": 1787,
      "Ġneed": 1788,
      "Ġinclud": 1789,
      "fore": 1790,
      "ìī": 1791,
      "Ġíŀ": 1792,
      "Ġë¦¬": 1793,
      "ì²ľ": 1794,
      "âĢ": 1795,
      "ĠìĦ¤": 1796,
      "Ġpol": 1797,
      "ug": 1798,
      "ĠíķĺëĤĺ": 1799,
      "ode": 1800,
      "Ġafter": 1801,
      "ange": 1802,
      "ë°ĺ": 1803,
      "Ġë¸": 1804,
      "aw": 1805,
      "olog": 1806,
      "Ġrequ": 1807,
      "ution": 1808,
      "ise": 1809,
      "ê¶Į": 1810,
      "ì§Ī": 1811,
      "Ġsupp": 1812,
      "ë²Ī": 1813,
      "Ġused": 1814,
      "Ġsim": 1815,
      "ĠâĢĵ": 1816,
      "ax": 1817,
      "íĺ¸": 1818,
      "erm": 1819,
      "Ī¬": 1820,
      "ĠìĤ¬ìļ©": 1821,
      "ì¶ľ": 1822,
      "ê°ľ": 1823,
      "ĠìķĦìĿ´": 1824,
      "Ŀ½": 1825,
      "Ġë²Ħ": 1826,
      "ĠíĹ": 1827,
      "ĠíķĦ": 1828,
      "ĠëĿ¼ëĬĶ": 1829,
      "Ġìĵ": 1830,
      "Ġthen": 1831,
      "Ġsaid": 1832,
      "ues": 1833,
      "====": 1834,
      "ëŁ¼": 1835,
      "Ġ}}": 1836,
      "Ġì°¸": 1837,
      "ë¸": 1838,
      "Ġì½Ķ": 1839,
      "ìŀĪ": 1840,
      "íĶ¼": 1841,
      "ments": 1842,
      "íĹĺ": 1843,
      "Ġcould": 1844,
      "Ġpat": 1845,
      "ì§ĳ": 1846,
      "tit": 1847,
      "ss": 1848,
      "ix": 1849,
      "íĿ": 1850,
      "ning": 1851,
      "Ġfol": 1852,
      "Ġsystem": 1853,
      "ject": 1854,
      "Ġref": 1855,
      "ë²ķ": 1856,
      "tt": 1857,
      "ê°Ĳ": 1858,
      "ìŀĦ": 1859,
      "Ġbr": 1860,
      "Ġsm": 1861,
      "ìķ½": 1862,
      "ions": 1863,
      "ize": 1864,
      "Ġright": 1865,
      "Ġshow": 1866,
      "Ġë§ŀ": 1867,
      "ëŀĢ": 1868,
      "ë¦¼": 1869,
      "ĠUn": 1870,
      "ock": 1871,
      "Ġcor": 1872,
      "ĠìĹ´": 1873,
      "Ġ~~": 1874,
      "ont": 1875,
      "Ġìľ¼ë©´": 1876,
      "ë©°": 1877,
      "ble": 1878,
      "Ġsee": 1879,
      "Ġì¤Ģ": 1880,
      "êµ°": 1881,
      "Ġinf": 1882,
      "Ġíģ¬": 1883,
      "tom": 1884,
      "ì¡±": 1885,
      "ople": 1886,
      "ĠìĭĿ": 1887,
      "Ġíİ¸": 1888,
      "Ġé": 1889,
      "ures": 1890,
      "thing": 1891,
      "Ġëĸ": 1892,
      "Ġìļ´": 1893,
      "áħ": 1894,
      "tern": 1895,
      "Ġback": 1896,
      "íĽĦ": 1897,
      "Ġë³¸": 1898,
      "ĠìłķëıĦ": 1899,
      "Ġ_{": 1900,
      "Ġmin": 1901,
      "ĠìľĦíķ´": 1902,
      "ì¦Ī": 1903,
      "tem": 1904,
      "ible": 1905,
      "als": 1906,
      "Ġìĸĳ": 1907,
      "ew": 1908,
      "Ġsur": 1909,
      "íĳľ": 1910,
      "ĠíĬ¹": 1911,
      "ex": 1912,
      "Ġmost": 1913,
      "Ġì¹ľ": 1914,
      "Ġíĸī": 1915,
      "Ġhim": 1916,
      "Ġ$\\": 1917,
      "ven": 1918,
      "Ġthrough": 1919,
      "Ġint": 1920,
      "ìĦĿ": 1921,
      "Ġì´Ī": 1922,
      "ever": 1923,
      "Ġjust": 1924,
      "ey": 1925,
      "Th": 1926,
      "ious": 1927,
      "ìł¸": 1928,
      "uring": 1929,
      "Ġì¶ľ": 1930,
      "íĥľ": 1931,
      "Ġmodel": 1932,
      "io": 1933,
      "íĮĮ": 1934,
      "Ġusing": 1935,
      "ĠìĨĲ": 1936,
      "Ġíħ": 1937,
      "ĠìĤ¬ì§Ħ": 1938,
      "Ġgener": 1939,
      "ower": 1940,
      "Ġknow": 1941,
      "Ġproduc": 1942,
      "Ġmath": 1943,
      "Ġëĵ¤ìĸ´": 1944,
      "ëĤł": 1945,
      "ved": 1946,
      "wn": 1947,
      "Ġì§ģ": 1948,
      "Ġì¤Ħ": 1949,
      "Ġwell": 1950,
      "ĠìĤ°": 1951,
      "ë³µ": 1952,
      "ìĪł": 1953,
      "ĠíĶĦ": 1954,
      "ë³¸": 1955,
      "ĠìĥĪ": 1956,
      "uch": 1957,
      "Ġ`": 1958,
      "ield": 1959,
      "Ġdisc": 1960,
      "Ġëĭ¤ê°Ģ": 1961,
      "Ġshould": 1962,
      "ĠìĹŃ": 1963,
      "arch": 1964,
      "ìłģ": 1965,
      "Ġname": 1966,
      "oy": 1967,
      "Ġfollow": 1968,
      "Ġê´": 1969,
      "its": 1970,
      "ities": 1971,
      "áĦĴ": 1972,
      "Ġëĥ": 1973,
      "ict": 1974,
      "ull": 1975,
      "Ġíĺ¸": 1976,
      "ìĬµ": 1977,
      "ìį": 1978,
      "Ġê¹Ģ": 1979,
      "test": 1980,
      "ì§ľ": 1981,
      "Ġter": 1982,
      "ëŁī": 1983,
      "Ġloc": 1984,
      "ê°ķ": 1985,
      "Ġdid": 1986,
      "ë°Ķ": 1987,
      "ited": 1988,
      "Ġê¸Ī": 1989,
      "Ġìłķë§Ĳ": 1990,
      "of": 1991,
      "Ġíķ´ìķ¼": 1992,
      "ful": 1993,
      "Ġcoun": 1994,
      "Ġê°ĢëĬ¥": 1995,
      "Ġì°¾": 1996,
      "rit": 1997,
      "Ġìĸ´ëĸ": 1998,
      "ement": 1999,
      "Ġcell": 2000,
      "Ġeach": 2001,
      "Ġpeople": 2002,
      "Ġìĭ¬": 2003,
      "ë²Ħ": 2004,
      "ĠëŃ": 2005,
      "Ġfl": 2006,
      "Ġimport": 2007,
      "ĠX": 2008,
      "Ġgrou": 2009,
      "ĠëıĮ": 2010,
      "Ġ^^": 2011,
      "Ġë©Ķ": 2012,
      "put": 2013,
      "Ġcur": 2014,
      "ĠëĲł": 2015,
      "ational": 2016,
      "Ġíıī": 2017,
      "ateg": 2018,
      "mer": 2019,
      "ìª": 2020,
      "ob": 2021,
      "ê¸ī": 2022,
      "thod": 2023,
      "ë¡ł": 2024,
      "Ġëł¤": 2025,
      "Ġau": 2026,
      "velop": 2027,
      "ĠíĴ": 2028,
      "ìłĪ": 2029,
      "ìĻĢ": 2030,
      "ĠÎ": 2031,
      "Ġbu": 2032,
      "atch": 2033,
      "Ġê°Ģì§Ģ": 2034,
      "Ġvari": 2035,
      "ĠëĲľëĭ¤": 2036,
      "ĠìĿ´ëĤĺ": 2037,
      "Ġbecause": 2038,
      "ĠQ": 2039,
      "ĠìķĦìļĶ": 2040,
      "íĭ°": 2041,
      "Ġê²½ìļ°": 2042,
      "ì·": 2043,
      "ption": 2044,
      "ìģ": 2045,
      "Ġconf": 2046,
      "ĠëĮĢíķľ": 2047,
      "Ġìķŀ": 2048,
      "au": 2049,
      "Ġcour": 2050,
      "ì¤Ģ": 2051,
      "ĠëĪĪ": 2052,
      "Ġdep": 2053,
      "ized": 2054,
      "ì¹´": 2055,
      "ature": 2056,
      "ĠìĹĦ": 2057,
      "Ġì²´": 2058,
      "Ġì¢ħ": 2059,
      "Ġexper": 2060,
      "ection": 2061,
      "íħĮ": 2062,
      "ider": 2063,
      "inal": 2064,
      "Ġfil": 2065,
      "Ġfact": 2066,
      "ward": 2067,
      "ĠìĻ¸": 2068,
      "Ġë§Įëĵ¤": 2069,
      "Ġê¼": 2070,
      "cc": 2071,
      "ects": 2072,
      "Ġconc": 2073,
      "áĦıáĦı": 2074,
      "ëł¨": 2075,
      "ĠÂ·": 2076,
      "ily": 2077,
      "Ġìļ©": 2078,
      "self": 2079,
      "Ġì²Ń": 2080,
      "ected": 2081,
      "Ġvalue": 2082,
      "Ġê·¼": 2083,
      "ork": 2084,
      "ĠìķĦìĦľ": 2085,
      "íı¬": 2086,
      "Ġmake": 2087,
      "ëĦĪ": 2088,
      "Ġcall": 2089,
      "ma": 2090,
      "Ġcar": 2091,
      "Ġìķ½": 2092,
      "Ġì¦Ŀ": 2093,
      "Ġê·¸ëŀĺ": 2094,
      "Ġë§ĽìŀĪ": 2095,
      "ĠRe": 2096,
      "Ġprocess": 2097,
      "ving": 2098,
      "Ġìĸ¼": 2099,
      "trib": 2100,
      "tical": 2101,
      "ëĭ´": 2102,
      "ì·¨": 2103,
      "Ġìĭľìŀĳ": 2104,
      "ters": 2105,
      "Ġhel": 2106,
      "Ġê·¸ëŁ°": 2107,
      "Ġëĵ¯": 2108,
      "Ġë³¼": 2109,
      "Ġíķ¨ê»ĺ": 2110,
      "Ġpoin": 2111,
      "Ġìĵ°": 2112,
      "íĤ¤": 2113,
      "Ġagain": 2114,
      "Ġanal": 2115,
      "Ġser": 2116,
      "ĠíĪ¬": 2117,
      "Ġfind": 2118,
      "Ġmed": 2119,
      "ages": 2120,
      "ĠTr": 2121,
      "Ġpers": 2122,
      "up": 2123,
      "íİĺ": 2124,
      "Ġincre": 2125,
      "Ġëĭ¤ë¥¸": 2126,
      "Ġlook": 2127,
      "Ġíŀĺ": 2128,
      "ê²°": 2129,
      "íģ": 2130,
      "Ġì¢Ģ": 2131,
      "ì¼Ģ": 2132,
      "Ġeven": 2133,
      "íĨł": 2134,
      "êµ¬ìļĶ": 2135,
      "Ġstat": 2136,
      "Ġexam": 2137,
      "Ġíĺķ": 2138,
      "ĠìĨį": 2139,
      "ĠìĿ¸ëį°": 2140,
      "Ġ\":": 2141,
      "ê²¨": 2142,
      "Ġele": 2143,
      "Ġserv": 2144,
      "Ġlong": 2145,
      "Ġway": 2146,
      "Ġnumber": 2147,
      "tal": 2148,
      "Ġpartic": 2149,
      "Ġsol": 2150,
      "Ġtest": 2151,
      "Ġdi": 2152,
      "ood": 2153,
      "Ġappro": 2154,
      "ìª½": 2155,
      "ê½": 2156,
      "led": 2157,
      "ë¦½": 2158,
      "Ġboth": 2159,
      "ĠëĴ": 2160,
      "Ġdifferent": 2161,
      "Ġevery": 2162,
      "ants": 2163,
      "Ġplay": 2164,
      "Ġëª©": 2165,
      "ife": 2166,
      "Ġmon": 2167,
      "ton": 2168,
      "Ġcontro": 2169,
      "Ġ\\]": 2170,
      "ëħĦ": 2171,
      "Ġsame": 2172,
      "formation": 2173,
      "ĠìĻĦ": 2174,
      "ì¢ħ": 2175,
      "ĠCom": 2176,
      "Ġdoes": 2177,
      "Ġì°į": 2178,
      "ì³": 2179,
      "ĠëĦĺ": 2180,
      "ove": 2181,
      "ric": 2182,
      "Wh": 2183,
      "ined": 2184,
      "Ġvery": 2185,
      "Ġes": 2186,
      "ĠëĪĦ": 2187,
      "til": 2188,
      "Ġleft": 2189,
      "Ġnow": 2190,
      "Ġdevelop": 2191,
      "Ġbefore": 2192,
      "íĥĿ": 2193,
      "ìĽĢ": 2194,
      "Ġdire": 2195,
      "ults": 2196,
      "ĠâĢĶ": 2197,
      "Ġyears": 2198,
      "uct": 2199,
      "Ġmem": 2200,
      "Ġmany": 2201,
      "Ġdown": 2202,
      "ines": 2203,
      "ëł¸": 2204,
      "Ġsto": 2205,
      "Ġcre": 2206,
      "ĠìŀĦ": 2207,
      "ĠAl": 2208,
      "Ġìĸ¸": 2209,
      "Ġê·¸ë¦¬ê³ł": 2210,
      "ìĦ¤": 2211,
      "Ġpart": 2212,
      "aph": 2213,
      "ĠPro": 2214,
      "ĠìĪľ": 2215,
      "Ġìī": 2216,
      "Ġlevel": 2217,
      "bs": 2218,
      "eng": 2219,
      "Ġë§ĪìĿĮ": 2220,
      "Ġì§Ī": 2221,
      "íİ¸": 2222,
      "ale": 2223,
      "Ġfound": 2224,
      "Ġread": 2225,
      "Ġinst": 2226,
      "Ġì»¤": 2227,
      "Ġ{\\": 2228,
      "ìĥī": 2229,
      "ëĭ¬": 2230,
      "Ġhand": 2231,
      "Ġer": 2232,
      "ĠFor": 2233,
      "Ġcomple": 2234,
      "Ġ\\[": 2235,
      "ì¡´": 2236,
      "ON": 2237,
      "Ġmethod": 2238,
      "Ġcase": 2239,
      "</": 2240,
      "ients": 2241,
      "Ġì²ľ": 2242,
      "Ġve": 2243,
      "Ġorder": 2244,
      "ince": 2245,
      "ash": 2246,
      "Ġìĺ¤ëĬĺ": 2247,
      "ê²ĥ": 2248,
      "ool": 2249,
      "Ġë³Ģ": 2250,
      "ublic": 2251,
      "íĺĦ": 2252,
      "ute": 2253,
      "ëĥ¥": 2254,
      "ī´": 2255,
      "ì¡Į": 2256,
      "Ġëĭ¤ìĭľ": 2257,
      "ases": 2258,
      "ator": 2259,
      "Ġchar": 2260,
      "Ġbel": 2261,
      "Ġ--": 2262,
      "ìĺ¨": 2263,
      "Ġë°Ķë¡ľ": 2264,
      "ĠíĻľ": 2265,
      "ëĤ¨": 2266,
      "Ġ}$": 2267,
      "ared": 2268,
      "Ġequ": 2269,
      "ĠìĹħ": 2270,
      "pr": 2271,
      "Ġê¸Ģ": 2272,
      "ĠëĶĶ": 2273,
      "ìº": 2274,
      "ĠëįĶëĿ¼êµ¬ìļĶ": 2275,
      "Ġthose": 2276,
      "Ġ!!": 2277,
      "Ġhtt": 2278,
      "ĠZ": 2279,
      "Ġê²Ģ": 2280,
      "\"\"": 2281,
      "Ġ\")": 2282,
      "gan": 2283,
      "ĠÐ": 2284,
      "ĠìĹĶ": 2285,
      "Ġed": 2286,
      "air": 2287,
      "ĠëĬĲëĤ": 2288,
      "Ġìĺ¨": 2289,
      "áħ²": 2290,
      "ìľ¡": 2291,
      "ĠíĤ": 2292,
      "ĠëĬĶëį°ìļĶ": 2293,
      "ner": 2294,
      "Ġbeing": 2295,
      "oci": 2296,
      "me": 2297,
      "con": 2298,
      "Ġë°ķ": 2299,
      "ins": 2300,
      "aking": 2301,
      "ank": 2302,
      "Ġì¸": 2303,
      "ness": 2304,
      "ee": 2305,
      "lish": 2306,
      "Ġìķł": 2307,
      "ĠAs": 2308,
      "ices": 2309,
      "Ġel": 2310,
      "ìľ¼": 2311,
      "Ġmade": 2312,
      "ĠëģĿ": 2313,
      "ER": 2314,
      "ëĿ½": 2315,
      "íķ©": 2316,
      "Ġëŀĳ": 2317,
      "íĺķ": 2318,
      "ì¶Ķ": 2319,
      "ê¾": 2320,
      "Ġline": 2321,
      "hip": 2322,
      "Ġë³´ìĿ´": 2323,
      "cl": 2324,
      "ëª©": 2325,
      "íĿ¬": 2326,
      "ĠíķĦìļĶ": 2327,
      "Ġë¿": 2328,
      "ĠìĿ´ìĥģ": 2329,
      "Ġìħ¨": 2330,
      "ason": 2331,
      "ier": 2332,
      "Ġ')": 2333,
      "Ġpresent": 2334,
      "Ġgu": 2335,
      "ave": 2336,
      "try": 2337,
      "tle": 2338,
      "Ġet": 2339,
      "Ġown": 2340,
      "ĠAr": 2341,
      "ĠãĤ": 2342,
      "Ġgood": 2343,
      "Ġq": 2344,
      "ng": 2345,
      "ount": 2346,
      "Ġhelp": 2347,
      "ĠëıĦë¡Ŀ": 2348,
      "Ġav": 2349,
      "Ġê¶Į": 2350,
      "ì²ĺ": 2351,
      "Ġì²ĺëŁ¼": 2352,
      "ĠìĿ´ëłĩê²Į": 2353,
      "bo": 2354,
      "Ġhere": 2355,
      "ë§Ŀ": 2356,
      "Ġbased": 2357,
      "ĠYou": 2358,
      "íĻ©": 2359,
      "Ġcap": 2360,
      "Ġê°Ī": 2361,
      "Ġstate": 2362,
      "Ġdiv": 2363,
      "ĠíĨµíķ´": 2364,
      "Ġperform": 2365,
      "ality": 2366,
      "ëŀľ": 2367,
      "íĸ¥": 2368,
      "Ġoper": 2369,
      "till": 2370,
      "Ġíĭ": 2371,
      "Ġë¬¸ìłľ": 2372,
      "ìĹĲ": 2373,
      "Ġëĭ´": 2374,
      "other": 2375,
      "ĠâĢĺ": 2376,
      "rent": 2377,
      "Ġmain": 2378,
      "Ġì§Ħíĸī": 2379,
      "ually": 2380,
      "ĠFig": 2381,
      "Ġmet": 2382,
      "ĠìķĦëĭ": 2383,
      "Ġcent": 2384,
      "ets": 2385,
      "ĠIf": 2386,
      "ĠAnd": 2387,
      "ĠëĨĴ": 2388,
      "ĠëĲĲ": 2389,
      "Ġdon": 2390,
      "Ġì§Ħì§ľ": 2391,
      "Ġgiv": 2392,
      "Ġstudy": 2393,
      "Ġwhile": 2394,
      "Ġsecond": 2395,
      "ĠíĻĺ": 2396,
      "ror": 2397,
      "ì¹¨": 2398,
      "íĮħ": 2399,
      "ĠëłĪ": 2400,
      "íĻĺ": 2401,
      "ĠíĮĲ": 2402,
      "ody": 2403,
      "ĠíĬ¸": 2404,
      "def": 2405,
      "Ġnon": 2406,
      "any": 2407,
      "Ġdel": 2408,
      "ĠëĮĢíķ´": 2409,
      "Ġíļ": 2410,
      "Ġrun": 2411,
      "ars": 2412,
      "ences": 2413,
      "ĠëĶ°ëĿ¼": 2414,
      "Ġthree": 2415,
      "ĠëĬĶì§Ģ": 2416,
      "ĠHow": 2417,
      "Ġduring": 2418,
      "ĠìĿ´ëŁ°": 2419,
      "ìĻĶ": 2420,
      "ization": 2421,
      "ism": 2422,
      "ë¦´": 2423,
      "Ġì§ĢëĤľ": 2424,
      "Ġë°ı": 2425,
      "ision": 2426,
      "Ġgroup": 2427,
      "Ġmuch": 2428,
      "pos": 2429,
      "Ġì¹ľêµ¬": 2430,
      "ë¥ĺ": 2431,
      "Ġcr": 2432,
      "ather": 2433,
      "ìĻ¸": 2434,
      "read": 2435,
      "echn": 2436,
      "Ġë³Ħ": 2437,
      "Ġì¦": 2438,
      "Ġposs": 2439,
      "__": 2440,
      "ann": 2441,
      "line": 2442,
      "over": 2443,
      "Ġext": 2444,
      "ëħĢ": 2445,
      "ired": 2446,
      "íĮĲ": 2447,
      "ĠëĴ¤": 2448,
      "Ŀµ": 2449,
      "Ġreturn": 2450,
      "Ġsmall": 2451,
      "Ġë¹ł": 2452,
      "Ġì§Ģê¸Ī": 2453,
      "Ġinformation": 2454,
      "erg": 2455,
      "ency": 2456,
      "ulation": 2457,
      "ability": 2458,
      "ties": 2459,
      "view": 2460,
      "Ġ\">": 2461,
      "ëŁ½": 2462,
      "alth": 2463,
      "Ġìº": 2464,
      "eck": 2465,
      "ves": 2466,
      "way": 2467,
      "Ġmark": 2468,
      "Ġë²ķ": 2469,
      "Ġì±Ħ": 2470,
      "Ġday": 2471,
      "Ġê°Ģìŀ¥": 2472,
      "dition": 2473,
      "Ġë´¤": 2474,
      "arly": 2475,
      "Ġproper": 2476,
      "Ġê½": 2477,
      "Ġë¸Ķ": 2478,
      "ìĿµ": 2479,
      "yl": 2480,
      "ìħĺ": 2481,
      "Ġë³µ": 2482,
      "ĠíĨł": 2483,
      "**": 2484,
      "Ġê°ĻìĿ´": 2485,
      "Ġconsider": 2486,
      "Ġdr": 2487,
      "Ġlist": 2488,
      "br": 2489,
      "ese": 2490,
      "Ġíģ°": 2491,
      "ë§ī": 2492,
      "Ġëĳ": 2493,
      "ê¾¸": 2494,
      "fic": 2495,
      "Ġíĳľ": 2496,
      "Ġprovid": 2497,
      "ì¿": 2498,
      "Ġpath": 2499,
      "ìį¨": 2500,
      "atic": 2501,
      "Ġíķ´ìļĶ": 2502,
      "Ġtem": 2503,
      "Ġsl": 2504,
      "por": 2505,
      "Ġthink": 2506,
      "ĠBut": 2507,
      "Ġperson": 2508,
      "Ġê·¸ëŁ¬": 2509,
      "Ġë¨¸": 2510,
      "ĠThere": 2511,
      "Ġìŀ¡": 2512,
      "Ġactiv": 2513,
      "Ġarg": 2514,
      "Ġì±ħ": 2515,
      "ĠìĻĶ": 2516,
      "ĠíķľêµŃ": 2517,
      "ë¸Į": 2518,
      "ists": 2519,
      "Ġdev": 2520,
      "Ġrece": 2521,
      "Ġwant": 2522,
      "Ġprev": 2523,
      "ience": 2524,
      "Ġwithout": 2525,
      "Ġproble": 2526,
      "ĠSh": 2527,
      "iqu": 2528,
      "ĠëĬĲëĤĮ": 2529,
      "uss": 2530,
      "ern": 2531,
      "ĠíħĮ": 2532,
      "Ġresults": 2533,
      "Ġê°ģ": 2534,
      "ential": 2535,
      "ĠëŁ¬": 2536,
      "ëĪ": 2537,
      "ì³Ĳ": 2538,
      "Ġlit": 2539,
      "ëł¹": 2540,
      "ĠíĶĮ": 2541,
      "Ġìľ¼ëĭĪ": 2542,
      "Ġcle": 2543,
      "Ġlab": 2544,
      "Ġë´Ĳ": 2545,
      "Ġchild": 2546,
      "ross": 2547,
      "ta": 2548,
      "Ġìĸµ": 2549,
      "amp": 2550,
      "Ġresult": 2551,
      "Ġent": 2552,
      "ĠìłľíĴĪ": 2553,
      "ger": 2554,
      "Ġê·Ģ": 2555,
      "gram": 2556,
      "ĠìħĶ": 2557,
      "ĠëĭĪê¹Į": 2558,
      "return": 2559,
      "ëįĶ": 2560,
      "ov": 2561,
      "Ġpur": 2562,
      "ĠìĤ¼": 2563,
      "Ġ|>": 2564,
      "take": 2565,
      "ĠìĤ¬ìĿ´": 2566,
      "Ġthough": 2567,
      "ĠëĨĢ": 2568,
      "Ŀĳ": 2569,
      "int": 2570,
      "day": 2571,
      "ĠìŀĲìĭł": 2572,
      "irc": 2573,
      "ĠëĨĵ": 2574,
      "ë°ķ": 2575,
      "Ġdescri": 2576,
      "ument": 2577,
      "Ġë¶Ģë¶Ħ": 2578,
      "Ġact": 2579,
      "Ġlead": 2580,
      "Ã©": 2581,
      "Ġhy": 2582,
      "ĠëĤľ": 2583,
      "Ġopen": 2584,
      "Ġexpl": 2585,
      "Ġcontrol": 2586,
      "land": 2587,
      "ë°°": 2588,
      "Ġfam": 2589,
      "yn": 2590,
      "Ġtext": 2591,
      "Ġë§ī": 2592,
      "Ġì·¨": 2593,
      "Ġparam": 2594,
      "Ġmeas": 2595,
      "ouse": 2596,
      "ì§Ģë§Į": 2597,
      "par": 2598,
      "Ġë°±": 2599,
      "ategory": 2600,
      "Ġë²ł": 2601,
      "ìĿĳ": 2602,
      "Ġdoc": 2603,
      "Ġfin": 2604,
      "ĠëĤĺìĺ¤": 2605,
      "Ġ__": 2606,
      "Ġêµ": 2607,
      "Ġê±°ëĤĺ": 2608,
      "gg": 2609,
      "ĠìĶ¨": 2610,
      "port": 2611,
      "íļ": 2612,
      "ë³Ģ": 2613,
      "ah": 2614,
      "ural": 2615,
      "Ġtop": 2616,
      "be": 2617,
      "Ġëª¨ëĳĲ": 2618,
      "Ġì¡°ê¸Ī": 2619,
      "Ġë¯¼": 2620,
      "AT": 2621,
      "Ġhead": 2622,
      "Ġë³ĳ": 2623,
      "Ġì¶©": 2624,
      "ìĨ¡": 2625,
      "ĠìĿ´ë²Ī": 2626,
      "Ġlife": 2627,
      "Ġì¤Ģë¹Ħ": 2628,
      "Ġiss": 2629,
      "Ġsignific": 2630,
      "az": 2631,
      "ìĬ¹": 2632,
      "ression": 2633,
      "ĠíĤ¤": 2634,
      "ĠëĦ£": 2635,
      "ane": 2636,
      "Ġ}\\": 2637,
      "Ġpri": 2638,
      "Ġmust": 2639,
      "ĠNew": 2640,
      "Ġmul": 2641,
      "ĠLet": 2642,
      "pec": 2643,
      "els": 2644,
      "Ġê´Ģë¦¬": 2645,
      "Ġfig": 2646,
      "ìłĳ": 2647,
      "Ġobs": 2648,
      "Ġdesign": 2649,
      "ë¨¸": 2650,
      "Ġlim": 2651,
      "min": 2652,
      "Ġê»ĺ": 2653,
      "ule": 2654,
      "ds": 2655,
      "Ġdem": 2656,
      "Ġsch": 2657,
      "Ð¾": 2658,
      "Ġsk": 2659,
      "Ġpass": 2660,
      "Ġtake": 2661,
      "íĸĪ": 2662,
      "ames": 2663,
      "ĠìĹ¬ê¸°": 2664,
      "acter": 2665,
      "ëĵ±": 2666,
      "aining": 2667,
      "ëĵĿ": 2668,
      "Ġstill": 2669,
      "Ġlast": 2670,
      "ĠëĭµëĭĪëĭ¤": 2671,
      "techn": 2672,
      "Ġstand": 2673,
      "Ġëª¨ìĬµ": 2674,
      "ê¿": 2675,
      "íģ¼": 2676,
      "Ġfield": 2677,
      "ĠìłĪ": 2678,
      "ĠìĹĲìļĶ": 2679,
      "ĠëŃĲ": 2680,
      "ology": 2681,
      "Ġê·¸ëĥ¥": 2682,
      "Ġlog": 2683,
      "action": 2684,
      "Ġanalys": 2685,
      "Ġmat": 2686,
      "ime": 2687,
      "Ġtechn": 2688,
      "ym": 2689,
      "ĠìĹ¬ëŁ¬": 2690,
      "iness": 2691,
      "ium": 2692,
      "Ġë°Ŀ": 2693,
      "ĠNo": 2694,
      "Ġíĸ¥": 2695,
      "Ġë¸Į": 2696,
      "Ġê¸´": 2697,
      "Ġcurrent": 2698,
      "ource": 2699,
      "Ġì½": 2700,
      "IN": 2701,
      "app": 2702,
      "ì±ħ": 2703,
      "Ġíļ¨": 2704,
      "ĠìĹĨìĿ´": 2705,
      "Ġëĭ¤ë©´": 2706,
      "lect": 2707,
      "ì¦ĺ": 2708,
      "Ġmen": 2709,
      "ĠìĤ¬ìĭ¤": 2710,
      "Ġworld": 2711,
      "Ġê°Ķ": 2712,
      "ĠíķŃ": 2713,
      "Ġcommun": 2714,
      "tes": 2715,
      "ì°©": 2716,
      "Ġíľ": 2717,
      "Ġì²ĺìĿĮ": 2718,
      "ĠAd": 2719,
      "Ġpower": 2720,
      "Ġallow": 2721,
      "Ġ</": 2722,
      "Ġwithin": 2723,
      "tract": 2724,
      "arge": 2725,
      "Ġcal": 2726,
      "istic": 2727,
      "Ġreal": 2728,
      "Ġìŀł": 2729,
      "ert": 2730,
      "Ġques": 2731,
      "mit": 2732,
      "ë³Ħ": 2733,
      "Ġatt": 2734,
      "Ġadv": 2735,
      "íķŃ": 2736,
      "ced": 2737,
      "Ġaff": 2738,
      "ëħ¸": 2739,
      "aj": 2740,
      "Ġvis": 2741,
      "Ġì¼Ģ": 2742,
      "oh": 2743,
      "oss": 2744,
      "arm": 2745,
      "Ġä¸": 2746,
      "į¼": 2747,
      "aren": 2748,
      "Ġdist": 2749,
      "eter": 2750,
      "ìĽĶ": 2751,
      "Ġfile": 2752,
      "ital": 2753,
      "ìĬ¤íĬ¸": 2754,
      "ivers": 2755,
      "bed": 2756,
      "Ġê´ĳ": 2757,
      "work": 2758,
      "Ġpatients": 2759,
      "Ġsize": 2760,
      "Ġsum": 2761,
      "ination": 2762,
      "Ġcondition": 2763,
      "ĠìĤ¬ëŀĳ": 2764,
      "Ġkey": 2765,
      "ior": 2766,
      "Ġbus": 2767,
      "arn": 2768,
      "meric": 2769,
      "Ġstart": 2770,
      "Ġsignificant": 2771,
      "for": 2772,
      "urther": 2773,
      "ES": 2774,
      "Ġëĭ¤ìĿĮ": 2775,
      "Ġ\"}": 2776,
      "idence": 2777,
      "ĠCl": 2778,
      "Ġimportant": 2779,
      "Ġbas": 2780,
      "ëĦ¤": 2781,
      "Ġexample": 2782,
      "ots": 2783,
      "Ġ^{": 2784,
      "ĠìĿ´ìļ©": 2785,
      "Ġëľ": 2786,
      "ĠáĦıáĦı": 2787,
      "ently": 2788,
      "Ġgreat": 2789,
      "Ġcontin": 2790,
      "ĠEx": 2791,
      "treat": 2792,
      "Ġêµ°": 2793,
      "ains": 2794,
      "ense": 2795,
      "ĠOn": 2796,
      "Ġnet": 2797,
      "Ġocc": 2798,
      "âĢľ": 2799,
      "Ġti": 2800,
      "Ġdeterm": 2801,
      "ëĮĢë¡ľ": 2802,
      "ploy": 2803,
      "ĠìĻľ": 2804,
      "Ġê°Ģê²©": 2805,
      "Ġprof": 2806,
      "Ġcare": 2807,
      "ying": 2808,
      "ately": 2809,
      "ĠëĬĶëĭ¤": 2810,
      "oth": 2811,
      "text": 2812,
      "cept": 2813,
      "Ġagainst": 2814,
      "ĠThey": 2815,
      "ĠCon": 2816,
      "Ġëª¨ë¥´": 2817,
      "Ġë°©ë²ķ": 2818,
      "Ġpoint": 2819,
      "Ġì´Ŀ": 2820,
      "ĠÂŃ": 2821,
      "ëıħ": 2822,
      "Ġsupport": 2823,
      "Ġfollowing": 2824,
      "Ġsay": 2825,
      "Ġbest": 2826,
      "Ġê²½ê¸°": 2827,
      "Ġpop": 2828,
      "Ġëĵł": 2829,
      "Ġapplic": 2830,
      "bers": 2831,
      "Ġaddition": 2832,
      "ìĸ¸": 2833,
      "Ġaround": 2834,
      "akes": 2835,
      "Ġëª¸": 2836,
      "ĠáĦĴ": 2837,
      "ë´": 2838,
      "ëī´": 2839,
      "íĻľ": 2840,
      "Ġëĭ¤ìĸĳ": 2841,
      "ĠAmeric": 2842,
      "ì´Ī": 2843,
      "ics": 2844,
      "Ġëĵľë¦¬": 2845,
      "ê·¸ëŀĺ": 2846,
      "Ġincluding": 2847,
      "Ġlaw": 2848,
      "ek": 2849,
      "ording": 2850,
      "Ġmean": 2851,
      "Ġrele": 2852,
      "Ġauth": 2853,
      "Ġchang": 2854,
      "Ġdirect": 2855,
      "Ġê³¨": 2856,
      "Ġidenti": 2857,
      "Ġhum": 2858,
      "Ġspecific": 2859,
      "Ġbre": 2860,
      "gin": 2861,
      "Ġsing": 2862,
      "ĠíĮ¨": 2863,
      "Ġíķ©": 2864,
      "Ġcells": 2865,
      "itive": 2866,
      "Ġíĥľ": 2867,
      "man": 2868,
      "Ġcourt": 2869,
      "íķł": 2870,
      "Ġke": 2871,
      "Ġlet": 2872,
      "ĠëĲ©ëĭĪëĭ¤": 2873,
      "Ġ':": 2874,
      "wh": 2875,
      "ĠìĥģíĻ©": 2876,
      "Ġtreat": 2877,
      "Ġì§ĢìĹŃ": 2878,
      "ĠìĦľìļ¸": 2879,
      "ë¹ł": 2880,
      "Ġsam": 2881,
      "Ġconn": 2882,
      "Ġold": 2883,
      "Ġstruct": 2884,
      "ê¸¸": 2885,
      "Ġìĭľìŀ¥": 2886,
      "ì¼ľ": 2887,
      "ĠìĤ¬ìĹħ": 2888,
      "truc": 2889,
      "orted": 2890,
      "ote": 2891,
      "ission": 2892,
      "aim": 2893,
      "ìĥĪ": 2894,
      "Ġbeh": 2895,
      "Ġest": 2896,
      "Ð°": 2897,
      "Ġhome": 2898,
      "rop": 2899,
      "Ġmulti": 2900,
      "ĠPh": 2901,
      "ĠíĶĦë¡ľ": 2902,
      "----------------": 2903,
      "Ġëª¨ëĵł": 2904,
      "aterial": 2905,
      "ured": 2906,
      "Ġsit": 2907,
      "Ġless": 2908,
      "ê¸Ģ": 2909,
      "Ġsever": 2910,
      "Ġì°½": 2911,
      "ë¸Ķ": 2912,
      "med": 2913,
      "ces": 2914,
      "ived": 2915,
      "son": 2916,
      "įëĭĪëĭ¤": 2917,
      "iver": 2918,
      "Category": 2919,
      "ĠìĿ´ìłľ": 2920,
      "und": 2921,
      "Ġsince": 2922,
      "ead": 2923,
      "Ġprogram": 2924,
      "ìģĺ": 2925,
      "Ġíģ´": 2926,
      "ĠíĻķìĿ¸": 2927,
      "ety": 2928,
      "ray": 2929,
      "Ġwater": 2930,
      "ene": 2931,
      "lement": 2932,
      "ĠHowever": 2933,
      "eral": 2934,
      "Ġanother": 2935,
      "ĠApp": 2936,
      "ertain": 2937,
      "Ġëı¼": 2938,
      "ìĺ¤ëĬĺ": 2939,
      "Ġlow": 2940,
      "Ġwr": 2941,
      "Ġla": 2942,
      "Ġgrow": 2943,
      "Ġview": 2944,
      "ength": 2945,
      "orn": 2946,
      "ĠíĹĪ": 2947,
      "oid": 2948,
      "Ġê·¸ëŀĺìĦľ": 2949,
      "Ġplace": 2950,
      "tice": 2951,
      "êº": 2952,
      "ê°Ŀ": 2953,
      "Ġrepres": 2954,
      "ways": 2955,
      "Ġfac": 2956,
      "ìĹĪ": 2957,
      "upp": 2958,
      "Ġspe": 2959,
      "ê²¬": 2960,
      "Ðµ": 2961,
      "ê°Ī": 2962,
      "Ġì¤ĳìļĶ": 2963,
      "ĠTo": 2964,
      "Ġìłĳ": 2965,
      "Ġwhe": 2966,
      "Ġmight": 2967,
      "Ġpublic": 2968,
      "ĠìĿ´ìķ¼": 2969,
      "íĶĮ": 2970,
      "Ġì¦Ĳ": 2971,
      "ĠIs": 2972,
      "Ġmonth": 2973,
      "Ġdri": 2974,
      "Ġhttps": 2975,
      "Ġgiven": 2976,
      "ì°°": 2977,
      "ically": 2978,
      "AR": 2979,
      "Ġê·ľ": 2980,
      "ì¹ľ": 2981,
      "ĠShe": 2982,
      "Ġ$$": 2983,
      "orts": 2984,
      "ush": 2985,
      "ective": 2986,
      "ĠInd": 2987,
      "ĠìĶ©": 2988,
      "ĠìĬ¹": 2989,
      "An": 2990,
      "ained": 2991,
      "Ġfree": 2992,
      "ĠìķĦëĭĮ": 2993,
      "íĺĢ": 2994,
      "Ġtyp": 2995,
      "Ġuser": 2996,
      "ìĮ": 2997,
      "========": 2998,
      "Ġíĺĳ": 2999,
      "the": 3000,
      "Ġì¹´íİĺ": 3001,
      "[@": 3002,
      "Ġìľ¼ë©°": 3003,
      "Ġìĥģíĥľ": 3004,
      "NA": 3005,
      "Ġë°ĸ": 3006,
      "Ġnext": 3007,
      "ìĤ´": 3008,
      "ìĺ¬": 3009,
      "Ġtoo": 3010,
      "ê·¸ë¦¬ê³ł": 3011,
      "ape": 3012,
      "Ġë¯": 3013,
      "Ġchange": 3014,
      "Ġbuild": 3015,
      "ëĬĲ": 3016,
      "ĠWhat": 3017,
      "ĠGr": 3018,
      "RL": 3019,
      "reen": 3020,
      "Ġë¨¼": 3021,
      "ë©Ķ": 3022,
      "Ġfrac": 3023,
      "Ġìĥī": 3024,
      "less": 3025,
      "Ġgl": 3026,
      "ìĺĪ": 3027,
      "ĠëıĪ": 3028,
      "ident": 3029,
      "ĠìķĦë¬´": 3030,
      "Ġlocal": 3031,
      "table": 3032,
      "Ġê¸ī": 3033,
      "Ġgoing": 3034,
      "Ġëŀ": 3035,
      "ably": 3036,
      "íļį": 3037,
      "Ġsubs": 3038,
      "Ġanalysis": 3039,
      "face": 3040,
      "ivid": 3041,
      "Ġfre": 3042,
      "Ġver": 3043,
      "ffic": 3044,
      "Ġwrit": 3045,
      "ê¶ģ": 3046,
      "Ġfew": 3047,
      "Ġorgan": 3048,
      "osed": 3049,
      "ìĸµ": 3050,
      "Ġê´Ģëł¨": 3051,
      "onse": 3052,
      "ë¶Ī": 3053,
      "ery": 3054,
      "Ġì¹ĺë£Į": 3055,
      "This": 3056,
      "Ġeas": 3057,
      "Ġtimes": 3058,
      "Ġlarge": 3059,
      "ìķħ": 3060,
      "ĠPl": 3061,
      "ĠSc": 3062,
      "Ġê³ĦìĨį": 3063,
      "lectr": 3064,
      "Ġcode": 3065,
      "Ġassoci": 3066,
      "stand": 3067,
      "ury": 3068,
      "ĠëĥĲ": 3069,
      "ëĭĺ": 3070,
      "ĠìĿ´ìľł": 3071,
      "ĠíĽ": 3072,
      "Ġred": 3073,
      "Ġëł¤ê³ł": 3074,
      "Ġë¿Ĳ": 3075,
      "ëħķ": 3076,
      "ends": 3077,
      "Ġhealth": 3078,
      "Ġcorre": 3079,
      "OR": 3080,
      "Ġbig": 3081,
      "Ġpot": 3082,
      "ĠëıĻìķĪ": 3083,
      "inc": 3084,
      "ris": 3085,
      "Ġëĵ¤ìĸ´ê°Ģ": 3086,
      "ault": 3087,
      "alse": 3088,
      "iron": 3089,
      "Ġìĸ´ëĸ¤": 3090,
      "ĠìĿ´ìķ¼ê¸°": 3091,
      "cul": 3092,
      "Ġì¶Ķì²ľ": 3093,
      "Ġcirc": 3094,
      "ìļ±": 3095,
      "ëģĶ": 3096,
      "Ġëıħ": 3097,
      "ĠìĿ´ëŀĳ": 3098,
      "Ġfour": 3099,
      "ìĶ¨": 3100,
      "Ġíķĺë£¨": 3101,
      "Ġê¼Ń": 3102,
      "omen": 3103,
      "vely": 3104,
      "Ġavail": 3105,
      "ìŁ": 3106,
      "Ġobserv": 3107,
      "ĠëĬĺ": 3108,
      "Ġpost": 3109,
      "search": 3110,
      "Ġll": 3111,
      "Ġvers": 3112,
      "oto": 3113,
      "ĠìĬ¤íĥĢ": 3114,
      "ĠâĪ": 3115,
      "istr": 3116,
      "íķ¨": 3117,
      "ĠìłĦë¬¸": 3118,
      "Ġìĸ´ìķ¼": 3119,
      "ights": 3120,
      "Ġturn": 3121,
      "Ġprob": 3122,
      "Ġindic": 3123,
      "Ġimpro": 3124,
      "ĠìľĦíķľ": 3125,
      "ems": 3126,
      "ox": 3127,
      "Ġendof": 3128,
      "ê´ĳ": 3129,
      "ìķł": 3130,
      "Ġì§¸": 3131,
      "lection": 3132,
      "Ġ==": 3133,
      "Ġposition": 3134,
      "What": 3135,
      "Ġëĳĺ": 3136,
      "ĠLe": 3137,
      "Ġlay": 3138,
      "Ġstar": 3139,
      "Ġcommon": 3140,
      "Ġmaterial": 3141,
      "ëłĪìĿ´": 3142,
      "Ġleg": 3143,
      "vern": 3144,
      "Ġì¸µ": 3145,
      "Ġparticular": 3146,
      "ither": 3147,
      "cal": 3148,
      "Ġ']": 3149,
      "ĠìĿ¸ì§Ģ": 3150,
      "Ġvol": 3151,
      "ĠëıĮìķĦ": 3152,
      "Ġimage": 3153,
      "Ġteam": 3154,
      "ìĩ": 3155,
      "íĺĶ": 3156,
      "Ġì§ĢìĽĲ": 3157,
      "Ġsuc": 3158,
      "Ġrefer": 3159,
      "Ġëª°": 3160,
      "Ġresearch": 3161,
      "ling": 3162,
      "ĠëĮĢíĳľ": 3163,
      "Ġê±´ê°ķ": 3164,
      "uce": 3165,
      "Ġsw": 3166,
      "ustr": 3167,
      "tig": 3168,
      "Ġinterest": 3169,
      "ìĹĨ": 3170,
      "ples": 3171,
      "Ġê¸°ìĹħ": 3172,
      "Ġëªĩ": 3173,
      "ĠìĹĦì²Ń": 3174,
      "Ġë°¥": 3175,
      "Ġabs": 3176,
      "iod": 3177,
      "ëĨ": 3178,
      "Ġáħ²": 3179,
      "Ġ%)": 3180,
      "We": 3181,
      "Ġcharacter": 3182,
      "Ġvar": 3183,
      "ĠìŀĲë¦¬": 3184,
      "Ġë²Į": 3185,
      "ë°¥": 3186,
      "ë¶ģ": 3187,
      "ëģ¼": 3188,
      "ession": 3189,
      "Ġãģ®": 3190,
      "Ġtable": 3191,
      "icro": 3192,
      "Ġì¡´": 3193,
      "ì°®": 3194,
      "ĠDe": 3195,
      "ë³ĳ": 3196,
      "ump": 3197,
      "ì°¬": 3198,
      "Ġhapp": 3199,
      "duced": 3200,
      "Ġobtain": 3201,
      "val": 3202,
      "ified": 3203,
      "Ġmax": 3204,
      "ĠìķĦì£¼": 3205,
      "ativ": 3206,
      "Ġrecord": 3207,
      "Ġ}_": 3208,
      "Ġrad": 3209,
      "êµ´": 3210,
      "acy": 3211,
      "Ġlight": 3212,
      "},": 3213,
      "ìļķ": 3214,
      "ĠAll": 3215,
      "ĠêµĲìľ¡": 3216,
      "Ġput": 3217,
      "Ġbetter": 3218,
      "Ġknown": 3219,
      "aps": 3220,
      "ilar": 3221,
      "ised": 3222,
      "Ġê´Ģê³Ħ": 3223,
      "Ġsugg": 3224,
      "EN": 3225,
      "ended": 3226,
      "ĠUS": 3227,
      "Let": 3228,
      "Ġgovern": 3229,
      "Ġproblem": 3230,
      "Ġìłķë³´": 3231,
      "ustom": 3232,
      "amb": 3233,
      "Ġreally": 3234,
      "Ġë§Įíģ¼": 3235,
      "ì¶ķ": 3236,
      "Ġide": 3237,
      "ask": 3238,
      "ì°½": 3239,
      "ãĢ": 3240,
      "Ġask": 3241,
      "ĠìĿĦê¹Į": 3242,
      "``": 3243,
      "uck": 3244,
      "ìĽł": 3245,
      "Ġbusiness": 3246,
      "Ġpossible": 3247,
      "Ġíĺ¼": 3248,
      "ances": 3249,
      "ream": 3250,
      "Ġsomething": 3251,
      "ĠìĿĮìĭĿ": 3252,
      "ĠìĹ¬íĸī": 3253,
      "Ġdue": 3254,
      "Ġindivid": 3255,
      "com": 3256,
      "Ġì²«": 3257,
      "ĠPI": 3258,
      "ird": 3259,
      "Ġprovide": 3260,
      "ĠíĶ¼ë¶Ģ": 3261,
      "Ġvalues": 3262,
      "Ġnever": 3263,
      "Ġbro": 3264,
      "ret": 3265,
      "ĠFr": 3266,
      "êº¼": 3267,
      "Ġnorm": 3268,
      "Ġ}^": 3269,
      "íĺ¼": 3270,
      "Ġlittle": 3271,
      "ÑĤ": 3272,
      "ëľ": 3273,
      "ĠìĦ¼": 3274,
      "Ġìĸ´ëĸ»": 3275,
      "Ġìļ´ëıĻ": 3276,
      "Ġwid": 3277,
      "ëķĮ": 3278,
      "Ġmanag": 3279,
      "ĠThese": 3280,
      "ĠíĦ°": 3281,
      "Ġpred": 3282,
      "Ġcontent": 3283,
      "Ġíĭ°": 3284,
      "hem": 3285,
      "Ġíķ´ëıĦ": 3286,
      "Ġbook": 3287,
      "ĠëįĶëĭĪ": 3288,
      "Ġbody": 3289,
      "Ġenv": 3290,
      "Ġëĸ¨": 3291,
      "Ġris": 3292,
      "ĠURL": 3293,
      "Ġêµ¬ìļĶ": 3294,
      "ĠCol": 3295,
      "Ġabove": 3296,
      "Ġì¿": 3297,
      "Ġì£½": 3298,
      "ìĸ´ëĤĺ": 3299,
      "Ġeffect": 3300,
      "ĠáĦĴáĦĴ": 3301,
      "Ġclaim": 3302,
      "Ġë³´ìĹ¬": 3303,
      "Ġterm": 3304,
      "ĠNone": 3305,
      "Ġcalled": 3306,
      "ĠëĶ±": 3307,
      "ĠìĹĦë§Ī": 3308,
      "Ġ}{": 3309,
      "Ġorig": 3310,
      "ĠëĤ´ìļ©": 3311,
      "Ġrepresent": 3312,
      "AN": 3313,
      "Ġap": 3314,
      "Ġrepl": 3315,
      "ension": 3316,
      "ìĹ´": 3317,
      "ml": 3318,
      "ì¸ł": 3319,
      "ĠíĴĢ": 3320,
      "ê¹Ģ": 3321,
      "Ġcho": 3322,
      "ìķ¡": 3323,
      "Ġrange": 3324,
      "Ġë°©ë¬¸": 3325,
      "Ġpay": 3326,
      "ĠìĹŃìĭľ": 3327,
      "ĠìĦ¤ëªħ": 3328,
      "ĠìĦłíĥĿ": 3329,
      "targ": 3330,
      "ĠíĮĢ": 3331,
      "ST": 3332,
      "ina": 3333,
      "Ġavailable": 3334,
      "lu": 3335,
      "Ġê²°ê³¼": 3336,
      "Ġsingle": 3337,
      "Ġbi": 3338,
      "Ġopp": 3339,
      "Ġìļ¸": 3340,
      "Ð¸": 3341,
      "Ġarea": 3342,
      "urs": 3343,
      "ocial": 3344,
      "Ġfail": 3345,
      "Ġexc": 3346,
      "ĠìĤ¬íļĮ": 3347,
      "Ġcheck": 3348,
      "Ġdays": 3349,
      "Ġinput": 3350,
      "Ġaccess": 3351,
      "Ġëĸł": 3352,
      "ìĿ½": 3353,
      "Ġcreate": 3354,
      "Ġside": 3355,
      "Ġbegin": 3356,
      "de": 3357,
      "Ġì£¼ë¬¸": 3358,
      "Ġfamily": 3359,
      "ope": 3360,
      "Ġindividual": 3361,
      "Ġhard": 3362,
      "Ġ$.": 3363,
      "itch": 3364,
      "Ġê°ĲìĤ¬": 3365,
      "Ġê·¸ëłĩ": 3366,
      "aper": 3367,
      "mp": 3368,
      "ats": 3369,
      "ë¡Ģ": 3370,
      "Ġwhether": 3371,
      "ĠRes": 3372,
      "ìĿ´íĬ¸": 3373,
      "Ġiniti": 3374,
      "Ġstep": 3375,
      "Ġë¯¸êµŃ": 3376,
      "ĳ¸": 3377,
      "ending": 3378,
      "ìĺĢ": 3379,
      "lected": 3380,
      "ED": 3381,
      "ìŁģ": 3382,
      "oot": 3383,
      "Ġinvol": 3384,
      "Ġ~~~": 3385,
      "Ġmus": 3386,
      "ë°±": 3387,
      "ëħĲ": 3388,
      "ĠëĿ¼ë©´": 3389,
      "St": 3390,
      "uro": 3391,
      "sc": 3392,
      "ĠìĿĢëį°": 3393,
      "Ġspan": 3394,
      "Ġbelie": 3395,
      "ê·¹": 3396,
      "gen": 3397,
      "Ġapproach": 3398,
      "Ġë³´ëĤ´": 3399,
      "ĠãĢ": 3400,
      "ëĭ¤ê³ł": 3401,
      "Ġemploy": 3402,
      "tively": 3403,
      "Ġperiod": 3404,
      "ĠìĿ½": 3405,
      "Ġlabel": 3406,
      "Ġë§Īëĭ¤": 3407,
      "Ġenerg": 3408,
      "ĠSo": 3409,
      "Ġplan": 3410,
      "Ġur": 3411,
      "Ġmathb": 3412,
      "Ġë¹¨": 3413,
      "Ġìĺ¬ëĿ¼": 3414,
      "Ġcy": 3415,
      "Ġlength": 3416,
      "ì§Ŀ": 3417,
      "Ġfull": 3418,
      "ister": 3419,
      "Ġê´ľ": 3420,
      "Ġcome": 3421,
      "Ġhist": 3422,
      "Ġê¹¨": 3423,
      "Ġtrue": 3424,
      "Ġevent": 3425,
      "Ġtarg": 3426,
      "Ġthings": 3427,
      "ĠìĿ´íĽĦ": 3428,
      "ajor": 3429,
      "Ġder": 3430,
      "Ġalways": 3431,
      "ron": 3432,
      "ĠAt": 3433,
      "IC": 3434,
      "Ġstrong": 3435,
      "Ġshown": 3436,
      "Ġreason": 3437,
      "utes": 3438,
      "jects": 3439,
      "Ġrate": 3440,
      "ê¸´": 3441,
      "ĠEn": 3442,
      "Ġê°ĸ": 3443,
      "ëłĮ": 3444,
      "ĠìĮ": 3445,
      "Ġë¶ģ": 3446,
      "Ġíľ´": 3447,
      "ë¹ĦìĬ¤": 3448,
      "Ġë°ľìĥĿ": 3449,
      "Ġcomb": 3450,
      "Ġhaving": 3451,
      "Ġsens": 3452,
      "uit": 3453,
      "Ġkeep": 3454,
      "Ġëĭµ": 3455,
      "Ġeng": 3456,
      "Ġ$,": 3457,
      "cent": 3458,
      "Ġë¡": 3459,
      "Ġê³Ħíļį": 3460,
      "!!": 3461,
      "Ġben": 3462,
      "Ġ})": 3463,
      "Ġsimilar": 3464,
      "Ġservice": 3465,
      "ĠWhen": 3466,
      "Ġleast": 3467,
      "ì©": 3468,
      "ait": 3469,
      "sec": 3470,
      "ì§Ģë§ī": 3471,
      "Ġmag": 3472,
      "Ġtotal": 3473,
      "Ġê³łë¯¼": 3474,
      "Ġschool": 3475,
      "Ġseveral": 3476,
      "Ġì¶ķ": 3477,
      "Ġë°ĿíĺĶ": 3478,
      "Ġbar": 3479,
      "Ġintern": 3480,
      "Ġêµ¬ë§¤": 3481,
      "though": 3482,
      "ĠìķĦì§ģ": 3483,
      "Ġë¬": 3484,
      "Ġprom": 3485,
      "Ġê¿": 3486,
      "ìģľ": 3487,
      "play": 3488,
      "Ġanti": 3489,
      "ĠÏ": 3490,
      "Ġdom": 3491,
      "Ġì§ģìłĳ": 3492,
      "Ġgive": 3493,
      "hib": 3494,
      "Ġhuman": 3495,
      "Ġrequire": 3496,
      "Ġìī½": 3497,
      "PI": 3498,
      "not": 3499,
      "Ġì§ĢëĤĺ": 3500,
      "Ġë§Ľì§ĳ": 3501,
      "ìĹ¼": 3502,
      "íĻķ": 3503,
      "ĠìķĮëł¤": 3504,
      "ĠOr": 3505,
      "Ġtal": 3506,
      "Ġresponse": 3507,
      "raph": 3508,
      "Ġgeneral": 3509,
      "<|": 3510,
      "Ġquestion": 3511,
      "erc": 3512,
      "outh": 3513,
      "Ġíİĺ": 3514,
      "Ġìĸ¼ë§Ī": 3515,
      "Ġcolor": 3516,
      "Ġerror": 3517,
      "íĬ¼": 3518,
      "ĠìĿ´ë¯¸": 3519,
      "yle": 3520,
      "ological": 3521,
      "idd": 3522,
      "Ġê¸°ëĮĢ": 3523,
      "Ġhigher": 3524,
      "atures": 3525,
      "Ġprac": 3526,
      "Ġunderstand": 3527,
      "ĠThat": 3528,
      "ëĤ¬": 3529,
      "Ġlang": 3530,
      "ental": 3531,
      "Ġable": 3532,
      "Ġprevious": 3533,
      "Ġgame": 3534,
      "Ġaction": 3535,
      "Ġuntil": 3536,
      "Ġfeel": 3537,
      "let": 3538,
      "ĠìĦ¸ê³Ħ": 3539,
      "Ġê³¼ìłķ": 3540,
      "Ġelectr": 3541,
      "Ġfurther": 3542,
      "af": 3543,
      "Ġmess": 3544,
      "Ġë§ĮëĤĺ": 3545,
      "AL": 3546,
      "ules": 3547,
      "ĠSp": 3548,
      "omm": 3549,
      "ĠìĥĿíĻľ": 3550,
      "ĠëĨį": 3551,
      "ck": 3552,
      "Ġpress": 3553,
      "Ġë¨¸ë¦¬": 3554,
      "Ġë£¨": 3555,
      "Ġ><": 3556,
      "Ġsuccess": 3557,
      "Ġpx": 3558,
      "Ġmeans": 3559,
      "ecess": 3560,
      "Ġdistrib": 3561,
      "Ġíļ¨ê³¼": 3562,
      "ocus": 3563,
      "usion": 3564,
      "ĠáĦıáĦıáĦı": 3565,
      "iversity": 3566,
      "tre": 3567,
      "IT": 3568,
      "Ġtreatment": 3569,
      "ĠíĺĦìŀ¬": 3570,
      "Ġgot": 3571,
      "entr": 3572,
      "ĠUnited": 3573,
      "ĠCo": 3574,
      "Ġinte": 3575,
      "ìĪľ": 3576,
      "ĠëıĦìĽĢ": 3577,
      "Ġidentif": 3578,
      "Ġenergy": 3579,
      "Ġê½ĥ": 3580,
      "aring": 3581,
      "tor": 3582,
      "Ġwon": 3583,
      "ipp": 3584,
      "ê³³": 3585,
      "thers": 3586,
      "Ġdevelopment": 3587,
      "iction": 3588,
      "Ġweek": 3589,
      "Ġevidence": 3590,
      "Ġchildren": 3591,
      "lob": 3592,
      "Ġfri": 3593,
      "ìļĶìĿ¼": 3594,
      "Ġjoin": 3595,
      "ĠíĪ¬ìŀĲ": 3596,
      "Ġconfig": 3597,
      "indow": 3598,
      "aces": 3599,
      "ìĿ´ìĬ¤": 3600,
      "ëĭµ": 3601,
      "Ġprote": 3602,
      "Ġstandard": 3603,
      "tif": 3604,
      "ume": 3605,
      "Ġ\\[[@": 3606,
      "Ġlater": 3607,
      "Ġenc": 3608,
      "Ġìª½": 3609,
      "Ġ},": 3610,
      "ĠPar": 3611,
      "Ġë©Ķëī´": 3612,
      "ĠíĮĶ": 3613,
      "Ġpi": 3614,
      "aster": 3615,
      "ĠíĻį": 3616,
      "ĠíĹ¤": 3617,
      "Ġlik": 3618,
      "Ġmove": 3619,
      "ĠìħĶìĦľ": 3620,
      "ĠBl": 3621,
      "Ġspace": 3622,
      "Ġíŀĺëĵ¤": 3623,
      "CT": 3624,
      "Ġprim": 3625,
      "ĠíķĻêµĲ": 3626,
      "Ġëª»íķĺ": 3627,
      "Ġden": 3628,
      "ĠíıŃ": 3629,
      "Ġindex": 3630,
      "Ch": 3631,
      "Ġãĥ": 3632,
      "Ġphys": 3633,
      "Ġreview": 3634,
      "tra": 3635,
      "itor": 3636,
      "Ġì¤ĳêµŃ": 3637,
      "Ġneg": 3638,
      "Ġ}(": 3639,
      "Ġshort": 3640,
      "Ġlower": 3641,
      "ĠìļĶì¦ĺ": 3642,
      "ĠìĥĪë¡ľ": 3643,
      "ĠìŀĳìĹħ": 3644,
      "Ġmajor": 3645,
      "Ġpack": 3646,
      "ables": 3647,
      "Ġalign": 3648,
      "verage": 3649,
      "ued": 3650,
      "Ġhour": 3651,
      "Ġappear": 3652,
      "íı°": 3653,
      "ĠSe": 3654,
      "Ġinclude": 3655,
      "Ġìĸ´ëĸ»ê²Į": 3656,
      "It": 3657,
      "Ġoften": 3658,
      "Ġcustom": 3659,
      "ĠìłĢíĿ¬": 3660,
      "ë§Ľ": 3661,
      "ĠëĺĲíķľ": 3662,
      "by": 3663,
      "Ġalong": 3664,
      "td": 3665,
      "ê±¸": 3666,
      "Re": 3667,
      "Ġpy": 3668,
      "ler": 3669,
      "ĠìĦľë¹ĦìĬ¤": 3670,
      "Ġexperim": 3671,
      "Ġìłķë¶Ģ": 3672,
      "####": 3673,
      "Ġìį¨": 3674,
      "Ġíĸīë³µ": 3675,
      "lished": 3676,
      "ĠëįĶëĿ¼ê³ł": 3677,
      "Ġrelated": 3678,
      "ided": 3679,
      "íĤ¨": 3680,
      "Ġ??": 3681,
      "Ġcases": 3682,
      "Ġ_{\\": 3683,
      "Ġíķĺì§Ģë§Į": 3684,
      "Ġê²½ìłľ": 3685,
      "ember": 3686,
      "Ġload": 3687,
      "pha": 3688,
      "\"\"\"": 3689,
      "ially": 3690,
      "atory": 3691,
      "Ġbase": 3692,
      "íıī": 3693,
      "Ġcompon": 3694,
      "da": 3695,
      "ìĿ´ìĸ´": 3696,
      "Ġdiscuss": 3697,
      "±ìłķ": 3698,
      "As": 3699,
      "Ġmarket": 3700,
      "íĥģ": 3701,
      "Ġpo": 3702,
      "Ġê¸°ë¶Ħ": 3703,
      "Ġamong": 3704,
      "Ġìµľê³ł": 3705,
      "ĠëŀĢ": 3706,
      "ìĿ´íģ¬": 3707,
      "alk": 3708,
      "Ġìĸ´ëł¤": 3709,
      "Ġê¸°ëĭ¤": 3710,
      "Ġoffic": 3711,
      "uation": 3712,
      "Ġì¶Ķê°Ģ": 3713,
      "back": 3714,
      "Ġìī¬": 3715,
      "Ġãģ«": 3716,
      "Ġsyn": 3717,
      "ìļ°ë¦¬": 3718,
      "Ġëĭ¤ëĭĪ": 3719,
      "ĠëĤĺíĥĢ": 3720,
      "Ġfar": 3721,
      "ê°Ķ": 3722,
      "ìĸ´ì§Ģ": 3723,
      "Ġtrial": 3724,
      "Ġë°Ģ": 3725,
      "ìľ¨": 3726,
      "Ġprot": 3727,
      "Ġê°ľìĿ¸": 3728,
      "AS": 3729,
      "ĠìĿ´ë¦Ħ": 3730,
      "Ġcertain": 3731,
      "orth": 3732,
      "ĠBr": 3733,
      "iving": 3734,
      "gether": 3735,
      "Ġsource": 3736,
      "mun": 3737,
      "Ġenviron": 3738,
      "ëĺĲ": 3739,
      "ibr": 3740,
      "ground": 3741,
      "ì»¤": 3742,
      "sw": 3743,
      "Ġeither": 3744,
      "Ġê°Ģì¡±": 3745,
      "Ġê¶ģ": 3746,
      "Ġrelations": 3747,
      "ëħģ": 3748,
      "Ġair": 3749,
      "Ġtarget": 3750,
      "íĦ": 3751,
      "Ġexist": 3752,
      "Ġë¨¼ìłĢ": 3753,
      "ĠíĻľëıĻ": 3754,
      "Ġê¸°ìĪł": 3755,
      "Ġsite": 3756,
      "Ġrequired": 3757,
      "ĠìĹ°êµ¬": 3758,
      "Ġfocus": 3759,
      "ype": 3760,
      "ories": 3761,
      "uted": 3762,
      "ĠCour": 3763,
      "íĪ¬": 3764,
      "umn": 3765,
      "Ġstudies": 3766,
      "ĠìĽĥ": 3767,
      "ĠíķľíħĮ": 3768,
      "ĠSch": 3769,
      "Ġsure": 3770,
      "Ġì°¨ëŁī": 3771,
      "Ġì²ł": 3772,
      "Ġoffer": 3773,
      "Ġsection": 3774,
      "asing": 3775,
      "Ġsat": 3776,
      "ĠíĴį": 3777,
      "ĠëĮĢíķĻ": 3778,
      "ĠìŀĶ": 3779,
      "ĠStates": 3780,
      "duction": 3781,
      "Ġì°¾ìķĦ": 3782,
      "ique": 3783,
      "ĠìĬ¤ëŁ¬": 3784,
      "olution": 3785,
      "aken": 3786,
      "ands": 3787,
      "ĠìĺģíĻĶ": 3788,
      "utions": 3789,
      "ĠëĤĺê°Ģ": 3790,
      "eters": 3791,
      "Ġmaking": 3792,
      "Ġkind": 3793,
      "Ġê¸°ìĸµ": 3794,
      "ĠëįĶëĿ¼ê³łìļĶ": 3795,
      "Ġdetail": 3796,
      "Ġdat": 3797,
      "Ex": 3798,
      "Ġê¹Ķ": 3799,
      "ãģŁ": 3800,
      "ìķĪëħķ": 3801,
      "ĠìĨĮë¦¬": 3802,
      "Ð½": 3803,
      "ready": 3804,
      "Ġë¶Ļ": 3805,
      "ĠBe": 3806,
      "Ġê¾¸": 3807,
      "Ġgovernment": 3808,
      "íĨ": 3809,
      "ĠìĨĮê°ľ": 3810,
      "ogn": 3811,
      "conom": 3812,
      "Ġsuper": 3813,
      "oney": 3814,
      "íį¼": 3815,
      "udg": 3816,
      "ET": 3817,
      "Ġenti": 3818,
      "tell": 3819,
      "ëŀľëĵľ": 3820,
      "Ġmill": 3821,
      "ìĸ¼": 3822,
      "ĩ´": 3823,
      "Ġlink": 3824,
      "Ġhttp": 3825,
      "Ġê±±ìłķ": 3826,
      "Ġê³µê°Ħ": 3827,
      "plic": 3828,
      "ĠìŀĲê¸°": 3829,
      "ĠíļĮìĤ¬": 3830,
      "Ġestim": 3831,
      "Ġaway": 3832,
      "Ġê³µë¶Ģ": 3833,
      "Ġdate": 3834,
      "Ġê´ľì°®": 3835,
      "Ġsocial": 3836,
      "ë²½": 3837,
      "ĠëĤĺìĻĶ": 3838,
      "Ġsal": 3839,
      "ĠAmerican": 3840,
      "Ġtemper": 3841,
      "resp": 3842,
      "ëŀĲ": 3843,
      "Ġê±°ëĵł": 3844,
      "Ġflow": 3845,
      "ĠëĤĺìļĶ": 3846,
      "augh": 3847,
      "Ġworking": 3848,
      "Ġwar": 3849,
      "ë²Į": 3850,
      "ources": 3851,
      "icy": 3852,
      "endent": 3853,
      "Ġobject": 3854,
      "Ġsequ": 3855,
      "Ġhold": 3856,
      "Ġfrequ": 3857,
      "ìĬ¨": 3858,
      "Ġrest": 3859,
      "Ġexperience": 3860,
      "Ġage": 3861,
      "Ġê°ĳ": 3862,
      "Ġmodels": 3863,
      "ĠìĺĪìłķ": 3864,
      "ĠCal": 3865,
      "Ġauthor": 3866,
      "ĠëĤĺëĿ¼": 3867,
      "Ġíķľëĭ¤ê³ł": 3868,
      "ìĹĩ": 3869,
      "raw": 3870,
      "ë¡ľëĤĺ": 3871,
      "Ġlot": 3872,
      "ector": 3873,
      "Ġêº¼": 3874,
      "Ġassociated": 3875,
      "IS": 3876,
      "Ñģ": 3877,
      "Pro": 3878,
      "arent": 3879,
      "ĠìĭľíĤ¤": 3880,
      "Ġê»ĺìĦľ": 3881,
      "ì±Ħ": 3882,
      "ides": 3883,
      "ley": 3884,
      "ëĿ¼ê³ł": 3885,
      "ĠìĬµ": 3886,
      "ê»´": 3887,
      "Ġaddress": 3888,
      "ĠëĿ¼ëıĦ": 3889,
      "ë§ģ": 3890,
      "Ġge": 3891,
      "ĠëįĶìļ±": 3892,
      "ì²ł": 3893,
      "Ġhowever": 3894,
      "ĠìĪł": 3895,
      "íĥķ": 3896,
      "ĠìľĦì¹ĺ": 3897,
      "Ġdim": 3898,
      "echan": 3899,
      "alf": 3900,
      "Ġinves": 3901,
      "Ġìľ¡": 3902,
      "ĠìĿ¼ë³¸": 3903,
      "à¤": 3904,
      "Ġwhy": 3905,
      "Ġgre": 3906,
      "Ġdone": 3907,
      "ãĤĭ": 3908,
      "atter": 3909,
      "ke": 3910,
      "ww": 3911,
      "Ġì¹¨": 3912,
      "Ġalpha": 3913,
      "ĠìĿ¸ê°Ģ": 3914,
      "ĠCO": 3915,
      "Ġê¸°ë¡Ŀ": 3916,
      "ators": 3917,
      "Ġmeasure": 3918,
      "Ġcaus": 3919,
      "Ġcompany": 3920,
      "Ġalready": 3921,
      "Ġnecess": 3922,
      "Ġmathcal": 3923,
      "Ġìĥģëĭ´": 3924,
      "ëĦĪë¬´": 3925,
      "Ġinvestig": 3926,
      "ĠSec": 3927,
      "ĠMe": 3928,
      "ĠFigure": 3929,
      "Ġìĸ´ëĬĲ": 3930,
      "Ġmicro": 3931,
      "Ġcourse": 3932,
      "ĠNe": 3933,
      "ibility": 3934,
      "Ġsearch": 3935,
      "Ġíı¬ìĬ¤": 3936,
      "ĠPr": 3937,
      "arl": 3938,
      "ÑĢ": 3939,
      "leg": 3940,
      "ohn": 3941,
      "Ġey": 3942,
      "Ġincrease": 3943,
      "Ġeval": 3944,
      "ìĭ¬íŀĪ": 3945,
      "ered": 3946,
      "Ġvi": 3947,
      "Ġupd": 3948,
      "Ġsurface": 3949,
      "ĠìĿĺìĽĲ": 3950,
      "Ġrequest": 3951,
      "ë¦Ń": 3952,
      "Ġep": 3953,
      "Ġìĭ¸": 3954,
      "Ġfore": 3955,
      "ĠEng": 3956,
      "Ġmar": 3957,
      "Ġwomen": 3958,
      "Ġlevels": 3959,
      "ĠìķĦì¹¨": 3960,
      "Ġtes": 3961,
      "onstr": 3962,
      "ìı": 3963,
      "Ġestab": 3964,
      "Ġchanges": 3965,
      "Ġmass": 3966,
      "Ġìĸ´ëıĦ": 3967,
      "Ġann": 3968,
      "AA": 3969,
      "tu": 3970,
      "ĠìĹħì²´": 3971,
      "ook": 3972,
      "·°": 3973,
      "ĠìľĦìĽĲ": 3974,
      "ID": 3975,
      "Ġlarg": 3976,
      "Ġê·¸ëłĩê²Į": 3977,
      "Ġproject": 3978,
      "Ġï": 3979,
      "Ġconditions": 3980,
      "Ġê±°ë¦¬": 3981,
      "oph": 3982,
      "Ġì§ľ": 3983,
      "Ġwin": 3984,
      "ìĶĢ": 3985,
      "Ġperformance": 3986,
      "ole": 3987,
      "Ġregion": 3988,
      "Ġcontr": 3989,
      "Ġple": 3990,
      "Ġëģ¼": 3991,
      "To": 3992,
      "Ġart": 3993,
      "Ġgroups": 3994,
      "Ġren": 3995,
      "ĠíĬ¹íŀĪ": 3996,
      "ograph": 3997,
      "Ġë³´íĹĺ": 3998,
      "lood": 3999,
      "ser": 4000,
      "ney": 4001,
      "Con": 4002,
      "Ġê°ľë°ľ": 4003,
      "uture": 4004,
      "Ġrisk": 4005,
      "tics": 4006,
      "Ġ='": 4007,
      "ê·¸ëŀĺìĦľ": 4008,
      "Ġtit": 4009,
      "Ġapplication": 4010,
      "Ġrole": 4011,
      "Ġì¤ĺ": 4012,
      "ĠìĺĨ": 4013,
      "Ġoutput": 4014,
      "Ġinj": 4015,
      "Ġìĸĺ": 4016,
      "ĠCR": 4017,
      "from": 4018,
      "Ġë¬¼ë¡ł": 4019,
      "Ġdocument": 4020,
      "ĠCoun": 4021,
      "Ġìļ´ìĺģ": 4022,
      "ãĥ¼": 4023,
      "Ġê²°ìłķ": 4024,
      "ĠìĻĦìłĦ": 4025,
      "Ġtre": 4026,
      "Ġìĸ¼êµ´": 4027,
      "Ġë°¤": 4028,
      "Ġeffects": 4029,
      "ests": 4030,
      "ify": 4031,
      "ëĭ¥": 4032,
      "Ġupon": 4033,
      "mission": 4034,
      "Ġjob": 4035,
      "time": 4036,
      "Ġbit": 4037,
      "Ġê³łê°Ŀ": 4038,
      "Ġversion": 4039,
      "ung": 4040,
      "ectively": 4041,
      "set": 4042,
      "Ġrespons": 4043,
      "Ġë¯¿": 4044,
      "Ġë³ĳìĽĲ": 4045,
      "Ġìĩ": 4046,
      "Ġque": 4047,
      "Ġsystems": 4048,
      "ë¦¬ìĬ¤": 4049,
      "Ġcard": 4050,
      "anti": 4051,
      "Ġnetwork": 4052,
      "ë¨¹": 4053,
      "cle": 4054,
      "Ġactivity": 4055,
      "Ġpropos": 4056,
      "ìľĦê¸°": 4057,
      "Ġmatch": 4058,
      "order": 4059,
      "ĠëĤ®": 4060,
      "ĠCourt": 4061,
      "Ġterms": 4062,
      "Ġmor": 4063,
      "Ġë§ĲìĶĢ": 4064,
      "ë°Ģ": 4065,
      "Ġëħ¼": 4066,
      "Ġlove": 4067,
      "ison": 4068,
      "ids": 4069,
      "Ġblock": 4070,
      "ì§ķ": 4071,
      "Ġsent": 4072,
      "Ġtogether": 4073,
      "Ġdidn": 4074,
      "Ġæľ": 4075,
      "Ġacross": 4076,
      "ĠìĬ¬": 4077,
      "Ġìłľê³µ": 4078,
      "ĠII": 4079,
      "Ġearly": 4080,
      "ĠíĥĪ": 4081,
      "Ġì§ĢìļĶ": 4082,
      "Ġìĸ´ëĶĶ": 4083,
      "íĬ¹": 4084,
      "ĠìºĲ": 4085,
      "ĠíĥĦ": 4086,
      "...": 4087,
      "íĥĦ": 4088,
      "Ġelse": 4089,
      "isc": 4090,
      "Ġstructure": 4091,
      "Ġdeb": 4092,
      "ĠìĿĳ": 4093,
      "Ġproperty": 4094,
      "Ġreported": 4095,
      "ortun": 4096,
      "Ġ\\].": 4097,
      "Ġì°©": 4098,
      "Ġparticip": 4099,
      "ĠíĮĲë§¤": 4100,
      "ĠëĤ´ëł¤": 4101,
      "íķĳ": 4102,
      "Ġcomplex": 4103,
      "Ġpaper": 4104,
      "Ġspecial": 4105,
      "})": 4106,
      "Ð¾Ð": 4107,
      "ĠÃĲ": 4108,
      "sequ": 4109,
      "íħľ": 4110,
      "ding": 4111,
      "ĠëĤĺìĻĢ": 4112,
      "Ġëī´": 4113,
      "Ġnormal": 4114,
      "Ġprovided": 4115,
      "Ġcontrib": 4116,
      "Ġhouse": 4117,
      "reg": 4118,
      "Ġì»¤íĶ¼": 4119,
      "ĠUniversity": 4120,
      "ĠëĤĺìĺ¨": 4121,
      "Ġdise": 4122,
      "Ġexpression": 4123,
      "ounds": 4124,
      "Ġê¸°ì¤Ģ": 4125,
      "Ġroom": 4126,
      "Ġcost": 4127,
      "íĨµëł¹": 4128,
      "Ġìĭľì¼ľ": 4129,
      "Ġê¸°ê°Ħ": 4130,
      "Ġsepar": 4131,
      "ĠìĽĮ": 4132,
      "Ġìķī": 4133,
      "ĠMy": 4134,
      "ĠëĶĶìŀĲ": 4135,
      "Ġreach": 4136,
      "Ġë§Įì¡±": 4137,
      "Ġseen": 4138,
      "Ġtool": 4139,
      "If": 4140,
      "ino": 4141,
      "Ġbecome": 4142,
      "ë²ł": 4143,
      "ĠíĻĪ": 4144,
      "AC": 4145,
      "sp": 4146,
      "Ġreport": 4147,
      "ê¹ĮìļĶ": 4148,
      "LE": 4149,
      "Ġëĵ£": 4150,
      "ëĪĦ": 4151,
      "lation": 4152,
      "Ġmechan": 4153,
      "Ġloss": 4154,
      "Ġenough": 4155,
      "ai": 4156,
      "ëŀ¨": 4157,
      "Ġvarious": 4158,
      "uary": 4159,
      "Ġë§Īì§Ģë§ī": 4160,
      "Ġ{#": 4161,
      "cer": 4162,
      "Ġtell": 4163,
      "ĠìķĮìķĦ": 4164,
      "Ġvide": 4165,
      "ĠWith": 4166,
      "Ġparti": 4167,
      "Ġquality": 4168,
      "Ġìµľê·¼": 4169,
      "Ġcou": 4170,
      "Ġê·¸ëŀĺëıĦ": 4171,
      "^^": 4172,
      "Ġbehav": 4173,
      "Ġsq": 4174,
      "Ġmom": 4175,
      "Ġäº": 4176,
      "ë²Ķ": 4177,
      "opy": 4178,
      "Ġtd": 4179,
      "Ġbenef": 4180,
      "Ġcompared": 4181,
      "Ġíĺ¹": 4182,
      "ìĬ¤íģ¬": 4183,
      "Ġáħ²áħ²": 4184,
      "tax": 4185,
      "ĠëĤ¨ìŀĲ": 4186,
      "Ġsuggest": 4187,
      "ìĹĦ": 4188,
      "ëıĮ": 4189,
      "Ġpotential": 4190,
      "Ġwww": 4191,
      "Ġpage": 4192,
      "urity": 4193,
      "Ġthird": 4194,
      "ë¡ľê·¸": 4195,
      "Ġstring": 4196,
      "ìī¬": 4197,
      "Ġê¸°ëĬ¥": 4198,
      "Ġconduc": 4199,
      "Ġwebs": 4200,
      "anted": 4201,
      "Ġenvironment": 4202,
      "ĠâĢĭ": 4203,
      "Ġcult": 4204,
      "ĠOne": 4205,
      "ring": 4206,
      "Ġissue": 4207,
      "ĠìłĦíĻĶ": 4208,
      "Ġthought": 4209,
      "ì¥": 4210,
      "Ġpoli": 4211,
      "Ġstyle": 4212,
      "ĠState": 4213,
      "Ġê¸°ë³¸": 4214,
      "ude": 4215,
      "ering": 4216,
      "Ġthing": 4217,
      "ga": 4218,
      "Ġvir": 4219,
      "Ġcri": 4220,
      "ë¦½ëĭĪëĭ¤": 4221,
      "Ġmultiple": 4222,
      "Ġdescribed": 4223,
      "Ġmil": 4224,
      "Ġland": 4225,
      "Ġweb": 4226,
      "ĠìĺĪìļĶ": 4227,
      "wards": 4228,
      "Ġeconom": 4229,
      "Ġens": 4230,
      "Ġartic": 4231,
      "ĠëĮĢíĨµëł¹": 4232,
      "pro": 4233,
      "Ġphoto": 4234,
      "Ġë´ī": 4235,
      "AM": 4236,
      "ĠìĻķ": 4237,
      "ì¯": 4238,
      "Ġshows": 4239,
      "Ġê²¨": 4240,
      "enn": 4241,
      "Ġdevice": 4242,
      "ĠMay": 4243,
      "Ġconst": 4244,
      "imum": 4245,
      "Ġservices": 4246,
      "col": 4247,
      "Ġaw": 4248,
      "Ġ\\\\": 4249,
      "Ġclear": 4250,
      "Ġinstall": 4251,
      "uth": 4252,
      "Ġmeet": 4253,
      "var": 4254,
      "ĠMan": 4255,
      "most": 4256,
      "Ġdefault": 4257,
      "Ġpriv": 4258,
      "Ġë§ĺ": 4259,
      "aff": 4260,
      "side": 4261,
      "Ġë¬´ìĹĩ": 4262,
      "tml": 4263,
      "ëĭ¤ëĬĶ": 4264,
      "Ġê³łê¸°": 4265,
      "Ġpositive": 4266,
      "sh": 4267,
      "ĠìŀĲìĹ°": 4268,
      "Ġìĸ¸ìłľ": 4269,
      "ĠìĤ¶": 4270,
      "ĠìĦłë¬¼": 4271,
      "Ġli": 4272,
      "Ġtrad": 4273,
      "ift": 4274,
      "Ġproduct": 4275,
      "ĠAss": 4276,
      "Ġonce": 4277,
      "Ġê±°ìĿĺ": 4278,
      "Ġorg": 4279,
      "irm": 4280,
      "Ġê±°ëĵłìļĶ": 4281,
      "ëłĪìĬ¤": 4282,
      "ising": 4283,
      "ê²¼": 4284,
      "Ġface": 4285,
      "ĠëĮĢë¡ľ": 4286,
      "Ġregard": 4287,
      "Ġê´Ģìĭ¬": 4288,
      "ĠìĦłìĪĺ": 4289,
      "ĠCan": 4290,
      "uff": 4291,
      "Ġ<|": 4292,
      "ĠMar": 4293,
      "tional": 4294,
      "ĠSupp": 4295,
      "Ġpor": 4296,
      "ļĦ": 4297,
      "Ġcm": 4298,
      "Ġsaf": 4299,
      "For": 4300,
      "lex": 4301,
      "ĠêµŃë¯¼": 4302,
      "Ġothers": 4303,
      "ëĶ©": 4304,
      "Ġincreased": 4305,
      "Ġfive": 4306,
      "ones": 4307,
      "ĠëĮĢìĥģ": 4308,
      "Ġbelow": 4309,
      "tiff": 4310,
      "Ġë¶ĦìľĦê¸°": 4311,
      "Ġmembers": 4312,
      "ĠìľĦíķ´ìĦľ": 4313,
      "ony": 4314,
      "load": 4315,
      "unch": 4316,
      "Ġaccording": 4317,
      "Ġobserved": 4318,
      "Ġëĭ¤ëħĢ": 4319,
      "Ġpain": 4320,
      "ĠìĬ¤ëŁ½": 4321,
      "Ġpoints": 4322,
      "ìŀĲê¸°": 4323,
      "Ġì¯": 4324,
      "Ġdig": 4325,
      "Ġ\".": 4326,
      "Ġ\"]": 4327,
      "ĠìłĢëħģ": 4328,
      "Ġìı": 4329,
      "Ġappe": 4330,
      "ĠStr": 4331,
      ").": 4332,
      "ì°Į": 4333,
      "imal": 4334,
      "Ġcountry": 4335,
      "ì¶©": 4336,
      "resh": 4337,
      "ê·Ģ": 4338,
      "Ġfix": 4339,
      "Ġfactors": 4340,
      "chie": 4341,
      "Ġcame": 4342,
      "íľ": 4343,
      "ĠìĹ¬ìŀĲ": 4344,
      "ê·¸ëŁ¬": 4345,
      "ĠëĿ¼ìĦľ": 4346,
      "Ġdefend": 4347,
      "Ġintegr": 4348,
      "ĠêµŃëĤ´": 4349,
      "ĠTH": 4350,
      "pper": 4351,
      "taken": 4352,
      "Ġrelationship": 4353,
      "ĠRep": 4354,
      "ê±°ë¦¬": 4355,
      "Ġcannot": 4356,
      "Ġaccount": 4357,
      "Ġì½Ķë¡ľëĤĺ": 4358,
      "Ġfuture": 4359,
      "Cl": 4360,
      "ION": 4361,
      "ĠëĬ¥": 4362,
      "Ġíĳ¸": 4363,
      "truction": 4364,
      "Ġpast": 4365,
      "Ġrat": 4366,
      "Ġexpress": 4367,
      "Ġprior": 4368,
      "ìħĶ": 4369,
      "Ġendofsec": 4370,
      "ê·ł": 4371,
      "Ġtook": 4372,
      "Ġë¬¸íĻĶ": 4373,
      "ĠFe": 4374,
      "Ġíķľëĭ¤ëĬĶ": 4375,
      "Ġfood": 4376,
      "Ġ...": 4377,
      "Ġ||": 4378,
      "Ġê·¼ëį°": 4379,
      "Ġclose": 4380,
      "respond": 4381,
      "Ġdeg": 4382,
      "ĠìĿ´ê²ĥ": 4383,
      "oint": 4384,
      "ìĿ´ë²Ī": 4385,
      "Ġpub": 4386,
      "Ġì¸¡": 4387,
      "andom": 4388,
      "ores": 4389,
      "Ġansw": 4390,
      "Ġseries": 4391,
      "Ġlangu": 4392,
      "import": 4393,
      "Ġêµ¬ìĦ±": 4394,
      "Ġcover": 4395,
      "ĠëĬĲê»´": 4396,
      "rt": 4397,
      "ensive": 4398,
      "ĠìĹ´ìĭ¬íŀĪ": 4399,
      "ĠìĿ¼ë°ĺ": 4400,
      "Ġutil": 4401,
      "Ġsolution": 4402,
      "Ġwidth": 4403,
      "Ġbot": 4404,
      "Ġìį": 4405,
      "Ġamount": 4406,
      "Ġìķħ": 4407,
      "Ġëħ¸ëł¥": 4408,
      "Ġconsidered": 4409,
      "Ġps": 4410,
      "Ġdisplay": 4411,
      "Ġåħ": 4412,
      "Ġmonths": 4413,
      "īìŀ¥": 4414,
      "Ġì¡°ìĤ¬": 4415,
      "ĠëŃĶ": 4416,
      "ledge": 4417,
      "Ġarray": 4418,
      "Ġobtained": 4419,
      "Ġpercent": 4420,
      "Ġmoney": 4421,
      "Ġfinal": 4422,
      "uration": 4423,
      "Ġlimit": 4424,
      "Ġrather": 4425,
      "Ġsays": 4426,
      "ĠAfter": 4427,
      "aced": 4428,
      "uter": 4429,
      "ĠJohn": 4430,
      "ambda": 4431,
      "Ġstudents": 4432,
      "ĠâĪĴ": 4433,
      "Ġimprove": 4434,
      "ĠAm": 4435,
      "ĠëĶĶìŀĲìĿ¸": 4436,
      "On": 4437,
      "ãģ¦": 4438,
      "Ġeffic": 4439,
      "ĠìŀĲëıĻ": 4440,
      "Ġfeatures": 4441,
      "Ġanaly": 4442,
      "Ľ°": 4443,
      "Ġê·¸ê²ĥ": 4444,
      "ë¶Ģë¶Ħ": 4445,
      "ĠìķĶ": 4446,
      "unction": 4447,
      "Ġeduc": 4448,
      "Ġra": 4449,
      "ĠÂ°": 4450,
      "Ġmm": 4451,
      "____": 4452,
      "ĠTable": 4453,
      "ĠëĮ": 4454,
      "Ġì¿ł": 4455,
      "Ġcommunity": 4456,
      "Ġëįķ": 4457,
      "Ġdefin": 4458,
      "Ģë¡ľ": 4459,
      "Ġconcentr": 4460,
      "Ġ->": 4461,
      "ĠTrue": 4462,
      "ĠíķĻìĥĿ": 4463,
      "Ġmethods": 4464,
      "ĠÂ±": 4465,
      "ëĿ¼ìĿ´": 4466,
      "Ġdou": 4467,
      "íħĶ": 4468,
      "ification": 4469,
      "Ġoccur": 4470,
      "Ġyoung": 4471,
      "Ġdam": 4472,
      "Ġtalk": 4473,
      "Ġworks": 4474,
      "Ġì¯¤": 4475,
      "ĠìĿ´ëŁ¬": 4476,
      "ĠëıĦìĭľ": 4477,
      "Ġ{}": 4478,
      "Ġintro": 4479,
      "Ġappl": 4480,
      "Ġexec": 4481,
      "Ġflo": 4482,
      "ĠÌ": 4483,
      "Ġìĺ¬íķ´": 4484,
      "ceed": 4485,
      "áħ®": 4486,
      "Ġìł¸": 4487,
      "ĠìķĦëŀĺ": 4488,
      "ĠìĦ¼íĦ°": 4489,
      "ĠìĦ¤ì¹ĺ": 4490,
      "ê³łê¸°": 4491,
      "íĮ¨": 4492,
      "ëłµ": 4493,
      "Ġsignal": 4494,
      "ĠìĻĢìĦľ": 4495,
      "Ġíĺ¼ìŀĲ": 4496,
      "ried": 4497,
      "Ġíı¬ìĬ¤íĮħ": 4498,
      "Ġdeath": 4499,
      "ìĽĥ": 4500,
      "Ġë²Ķ": 4501,
      "Ġseason": 4502,
      "Ġê²½íĹĺ": 4503,
      "ĠìĹ¬ìĦ±": 4504,
      "tro": 4505,
      "Ġadmin": 4506,
      "Ġë§Īìĭľ": 4507,
      "Ġìĭ«": 4508,
      "Ġmind": 4509,
      "ë´ī": 4510,
      "ensity": 4511,
      "ìĪĻ": 4512,
      "Ġcorrespond": 4513,
      "Ġfactor": 4514,
      "Ġtry": 4515,
      "Ġìľłì§Ģ": 4516,
      "ĠìĿ¸íĦ°": 4517,
      "ĠMr": 4518,
      "ux": 4519,
      "ĠìĪĻ": 4520,
      "Ġìĺ·": 4521,
      "lobal": 4522,
      "ë»": 4523,
      "ì°¸": 4524,
      "Ġitem": 4525,
      "ĠìĥģíĴĪ": 4526,
      "Ġweight": 4527,
      "Ġever": 4528,
      "ìļ´ëį°": 4529,
      "Ġnat": 4530,
      "Ġtold": 4531,
      "ĠìłĦì²´": 4532,
      "ĠìĨ¡": 4533,
      "ception": 4534,
      "ĠEd": 4535,
      "ĠìĿĺë¯¸": 4536,
      "ëł´": 4537,
      "Ġpick": 4538,
      "ires": 4539,
      "Ġlearn": 4540,
      "Ġdecre": 4541,
      "Ġdiffic": 4542,
      "Ġpattern": 4543,
      "iam": 4544,
      "ĠíĿĲ": 4545,
      "]{": 4546,
      "cep": 4547,
      "Ġsimple": 4548,
      "UM": 4549,
      "ĠëıĦì°©": 4550,
      "Ġcos": 4551,
      "Ġvalid": 4552,
      "Ġclos": 4553,
      "Ġë§ŀì¶": 4554,
      "ival": 4555,
      "use": 4556,
      "ĠìĦ¸ìĥģ": 4557,
      "ìĨĲ": 4558,
      "ĠêµŃê°Ģ": 4559,
      "ë¶ĢíĦ°": 4560,
      "Ġìĺ¤ëŀĺ": 4561,
      "Ġmakes": 4562,
      "Ġachie": 4563,
      "ives": 4564,
      "oman": 4565,
      "ero": 4566,
      "ĠPol": 4567,
      "à¸": 4568,
      "Ġtaken": 4569,
      "Ġê°ľìĽĶ": 4570,
      "Ġbound": 4571,
      "Ġdiag": 4572,
      "Ġìĸ»": 4573,
      "Ġmedia": 4574,
      "ference": 4575,
      "ĠíĻĺê²½": 4576,
      "Ġë¿Į": 4577,
      "ze": 4578,
      "Ġìĩ¼": 4579,
      "ĠìłľìĿ¼": 4580,
      "ĠãĤĴ": 4581,
      "RE": 4582,
      "ĠTe": 4583,
      "Ġlooking": 4584,
      "Ġ$$\\": 4585,
      "ians": 4586,
      "ĠìĿµ": 4587,
      "Ġcalcul": 4588,
      "Ġcross": 4589,
      "ened": 4590,
      "ĠìĪĺìĹħ": 4591,
      "Ġåı": 4592,
      "ĠìķĦíĮĮ": 4593,
      "íĶĪ": 4594,
      "Ġtemperature": 4595,
      "Ġinflu": 4596,
      "ĠìŀĲì£¼": 4597,
      "ĠìĭŃ": 4598,
      "Ġnull": 4599,
      "Ġcoll": 4600,
      "Ġdoesn": 4601,
      "inary": 4602,
      "Ġblack": 4603,
      "ĠíķŃìĥģ": 4604,
      "ë¥¼": 4605,
      "ĠìĨĶ": 4606,
      "oup": 4607,
      "ĠGen": 4608,
      "Ġhtml": 4609,
      "Ġnode": 4610,
      "Ġlikely": 4611,
      "Ġtax": 4612,
      "Ġë°ĶëĿ¼": 4613,
      "Ġyet": 4614,
      "Ġgene": 4615,
      "RO": 4616,
      "Ġhistory": 4617,
      "ĠBy": 4618,
      "ì¹ł": 4619,
      "osp": 4620,
      "ĠDr": 4621,
      "Ġì»¨": 4622,
      "ĠìĽĢ": 4623,
      "ì«": 4624,
      "ĠÎ¼": 4625,
      "ĠIm": 4626,
      "ply": 4627,
      "Ġnear": 4628,
      "artment": 4629,
      "ĠìĿ´íķ´": 4630,
      "Ġå¹": 4631,
      "Ġê¼¬": 4632,
      "Ġtypes": 4633,
      "Ġseem": 4634,
      "ê°ĳ": 4635,
      "rix": 4636,
      "Ġill": 4637,
      "Ã¡": 4638,
      "odes": 4639,
      "Ġadj": 4640,
      "ĠëĮĢíķ´ìĦľ": 4641,
      "Ġë½": 4642,
      "ĠçļĦ": 4643,
      "Ġprec": 4644,
      "Ġå¤": 4645,
      "Ġsix": 4646,
      "Ġhalf": 4647,
      "ê·ľ": 4648,
      "Ġë¶Ģëĭ´": 4649,
      "ĠìĥĪë¡ľìļ´": 4650,
      "Ġactually": 4651,
      "ëĦĲ": 4652,
      "Ġframe": 4653,
      "aintiff": 4654,
      "Ġwhole": 4655,
      "une": 4656,
      "Ġíį¼": 4657,
      "ìĽĮìĦľ": 4658,
      "Ġíķ´ê²°": 4659,
      "ĠSee": 4660,
      "ished": 4661,
      "pose": 4662,
      "ìķĻ": 4663,
      "Ġproducts": 4664,
      "Ġcut": 4665,
      "Ġíı¬íķ¨": 4666,
      "Ġstatus": 4667,
      "ê³¨": 4668,
      "Ġê²ĮìŀĦ": 4669,
      "Ġcity": 4670,
      "Ġproduction": 4671,
      "Ġë§Ŀ": 4672,
      "Ġsn": 4673,
      "ĠDec": 4674,
      "Ġì¥": 4675,
      "Ġì¤¬": 4676,
      "ĠìµľëĮĢ": 4677,
      "Ġdoing": 4678,
      "Ġë§¤ìļ°": 4679,
      "ìĬ¬": 4680,
      "Ġgrowth": 4681,
      "Ġâģ": 4682,
      "íĥĪ": 4683,
      "ĠìķĦìķ¼": 4684,
      "Ġoptim": 4685,
      "Ġ-----------------": 4686,
      "ĠIN": 4687,
      "Ġund": 4688,
      "get": 4689,
      "amm": 4690,
      "Ġwent": 4691,
      "Ġassess": 4692,
      "ĠAc": 4693,
      "Ġìĸĺê¸°": 4694,
      "oud": 4695,
      "ĠíĴĪ": 4696,
      "ĠëĬĲëģ¼": 4697,
      "ĠGod": 4698,
      "ystem": 4699,
      "ru": 4700,
      "ĠìłľëĮĢë¡ľ": 4701,
      "Ġê·¹": 4702,
      "ĠíĻľìļ©": 4703,
      "Ġê¶ģê¸Ī": 4704,
      "ìľµ": 4705,
      "Ġobj": 4706,
      "avel": 4707,
      "fficient": 4708,
      "ĠEuro": 4709,
      "amma": 4710,
      "Ġmatter": 4711,
      "Ġperformed": 4712,
      "Ġteach": 4713,
      "oo": 4714,
      "medi": 4715,
      "Ġadded": 4716,
      "Ġë¹¼": 4717,
      "ìĹĨìĿ´": 4718,
      "pri": 4719,
      "ls": 4720,
      "Ġneeds": 4721,
      "Ġissues": 4722,
      "ills": 4723,
      "Ġ&&": 4724,
      "trac": 4725,
      "name": 4726,
      "omes": 4727,
      "Ġì¹¼": 4728,
      "Ġnight": 4729,
      "ë¬´ë¦¬": 4730,
      "arning": 4731,
      "ëįķ": 4732,
      "Ġagre": 4733,
      "Ġmessage": 4734,
      "Ġì±Ļ": 4735,
      "Ġchall": 4736,
      "Ġstrateg": 4737,
      "Ġonline": 4738,
      "Ġimplement": 4739,
      "How": 4740,
      "vent": 4741,
      "Ġ\",\"": 4742,
      "Ġmu": 4743,
      "her": 4744,
      "Ġelement": 4745,
      "uments": 4746,
      "ê³¡": 4747,
      "Ġdemonstr": 4748,
      "dro": 4749,
      "Ã³": 4750,
      "Ġëļ": 4751,
      "Ġfav": 4752,
      "Ġê¹ĶëģĶ": 4753,
      "ê·¼ëį°": 4754,
      "ĠCar": 4755,
      "Ġshowed": 4756,
      "tition": 4757,
      "Ġwebsite": 4758,
      "ĠThen": 4759,
      "ĠMore": 4760,
      "ëŀµ": 4761,
      "ĠìĦ±ìŀ¥": 4762,
      "ĠëĿ¼ë©°": 4763,
      "Tr": 4764,
      "Ġess": 4765,
      "Ġtitle": 4766,
      "ëĭ¤ë©´": 4767,
      "where": 4768,
      "ĠPC": 4769,
      "Ġul": 4770,
      "xim": 4771,
      "Ġë§¥": 4772,
      "osition": 4773,
      "Ġchann": 4774,
      "Ġdeal": 4775,
      "astic": 4776,
      "Ġvia": 4777,
      "Ġê°Ģìł¸": 4778,
      "Ġfilm": 4779,
      "thon": 4780,
      "ĠComp": 4781,
      "Ġclin": 4782,
      "Ġpersonal": 4783,
      "Ġcommit": 4784,
      "Ġcause": 4785,
      "ĠìŀĲì²´": 4786,
      "OS": 4787,
      "Ġincluded": 4788,
      "tention": 4789,
      "Ġë¹µ": 4790,
      "Ġdefined": 4791,
      "Ġsex": 4792,
      "Ġrow": 4793,
      "Ġindep": 4794,
      "bol": 4795,
      "onic": 4796,
      "ĠëĽ°": 4797,
      "pped": 4798,
      "tag": 4799,
      "Ġìŀĸ": 4800,
      "izing": 4801,
      "Ġinitial": 4802,
      "uly": 4803,
      "ĠRo": 4804,
      "ĠìĿ´ëĿ¼ê³ł": 4805,
      "Ġíıīê°Ģ": 4806,
      "Ġcreat": 4807,
      "ref": 4808,
      "Ġìľ¤": 4809,
      "Ġgrad": 4810,
      "ìŀ¡": 4811,
      "na": 4812,
      "íĴį": 4813,
      "ë¨¸ëĭĪ": 4814,
      "Name": 4815,
      "Ġsil": 4816,
      "Ġë¶ĢìĤ°": 4817,
      "ĠSte": 4818,
      "ĠìĿ¸ëį°ìļĶ": 4819,
      "pecially": 4820,
      "Ġaverage": 4821,
      "ì¦Į": 4822,
      "verse": 4823,
      "ĠìĤ°ìĹħ": 4824,
      "print": 4825,
      "ĠìĥģëĮĢ": 4826,
      "Ġviol": 4827,
      "dd": 4828,
      "type": 4829,
      "Ġê²ĢìĤ¬": 4830,
      "Ġalmost": 4831,
      "Ġrandom": 4832,
      "Ġentire": 4833,
      "cript": 4834,
      "times": 4835,
      "aging": 4836,
      "ĠíĻĶìŀ¥": 4837,
      "go": 4838,
      "illed": 4839,
      "ĠìĤ¬ê³ł": 4840,
      "Ġëħ¸ëŀĺ": 4841,
      "Ġproblems": 4842,
      "Ġìľłëªħ": 4843,
      "ãģĦ": 4844,
      "ilities": 4845,
      "Ġsample": 4846,
      "ĠPat": 4847,
      "ynam": 4848,
      "box": 4849,
      "Ġê¸°ê´Ģ": 4850,
      "ê¹Ĳ": 4851,
      "ĠíĿ¬": 4852,
      "Ġtrack": 4853,
      "íķĺì§Ģë§Į": 4854,
      "ĠWor": 4855,
      "ĠìŀĲìĦ¸": 4856,
      "ĠìĿ´ìĸ´": 4857,
      "Ġcolumn": 4858,
      "ĠMed": 4859,
      "Ġstory": 4860,
      "Ġsqrt": 4861,
      "Ġang": 4862,
      "Ġë©ĭ": 4863,
      "fact": 4864,
      "utr": 4865,
      "ĠíĻ©": 4866,
      "ĠST": 4867,
      "Ġblood": 4868,
      "Ġparty": 4869,
      "Ġvideo": 4870,
      "ĠíĨ": 4871,
      "Ġìĭłì²Ń": 4872,
      "ball": 4873,
      "ħëĭĪëĭ¤": 4874,
      "ored": 4875,
      "Ġï¸": 4876,
      "Ġoriginal": 4877,
      "Ġbox": 4878,
      "Ġcook": 4879,
      "ĠìķĪìłĦ": 4880,
      "Ġ[@": 4881,
      "ÃŃ": 4882,
      "Ġrespectively": 4883,
      "ulated": 4884,
      "ìķĶ": 4885,
      "Ġëĭ¤ë¥´": 4886,
      "ĠSome": 4887,
      "Ġconsist": 4888,
      "gress": 4889,
      "Ġnp": 4890,
      "Ġlin": 4891,
      "Ġìłķë¦¬": 4892,
      "ication": 4893,
      "Ġasked": 4894,
      "ëĶĶìĸ´": 4895,
      "Ġë°ĶëŀĮ": 4896,
      "Ġsqu": 4897,
      "Ġreceived": 4898,
      "Ġfit": 4899,
      "ìĭľìķĦ": 4900,
      "Ġìĭłê²½": 4901,
      "He": 4902,
      "Ġdifference": 4903,
      "gor": 4904,
      "Ġlat": 4905,
      "Ġprotein": 4906,
      "ĠìĦ±ê³µ": 4907,
      "Ġstates": 4908,
      "AP": 4909,
      "Ã¤": 4910,
      "ãĥ³": 4911,
      "Ġë©Ģ": 4912,
      "Ġìĸ´ë¦°": 4913,
      "Ġwindow": 4914,
      "ìŃ": 4915,
      "Ġëħ¹": 4916,
      "atively": 4917,
      "Ġprovides": 4918,
      "ĠìĿ¸íķ´": 4919,
      "OT": 4920,
      "Ġevents": 4921,
      "ĠìĪľê°Ħ": 4922,
      "onal": 4923,
      "vert": 4924,
      "ëŁ´": 4925,
      "Ġï¸ı": 4926,
      "Ġrecogn": 4927,
      "Ġwords": 4928,
      "AD": 4929,
      "Ġìłľì£¼": 4930,
      "íķĦ": 4931,
      "log": 4932,
      "ëĭĪê¹Į": 4933,
      "Ġnecessary": 4934,
      "Ġì°¨ìĿ´": 4935,
      "Ġphase": 4936,
      "ĠìĭľíĹĺ": 4937,
      "ĠëĶ¸": 4938,
      "Ġadditional": 4939,
      "Ġmathbb": 4940,
      "Ġhours": 4941,
      "Ġthus": 4942,
      "Ġste": 4943,
      "Ġproto": 4944,
      "truct": 4945,
      "Ġê²¬": 4946,
      "anced": 4947,
      "Ġparameters": 4948,
      "ĠìĿ´ëĤł": 4949,
      "Ġê²°êµŃ": 4950,
      "ilt": 4951,
      "Ġdecision": 4952,
      "ĠMin": 4953,
      "ĠíĶ¼íķ´": 4954,
      "Ġìľ¼ìĭľ": 4955,
      "roll": 4956,
      "istics": 4957,
      "igma": 4958,
      "esis": 4959,
      "Ġdirection": 4960,
      "---": 4961,
      "Ġdisease": 4962,
      "Ġtoday": 4963,
      "Ġwhite": 4964,
      "Ġheld": 4965,
      "Ġìļķ": 4966,
      "igr": 4967,
      "fr": 4968,
      "Ġspecies": 4969,
      "ĠìĹ¬ë¦Ħ": 4970,
      "Ġproperties": 4971,
      "Ġactive": 4972,
      "ë¦¬ìĸ´": 4973,
      "ĠCor": 4974,
      "ucle": 4975,
      "Ġbreak": 4976,
      "ĠëĤłìĶ¨": 4977,
      "ĠëĺĲëĬĶ": 4978,
      "ĠCD": 4979,
      "ĠEurope": 4980,
      "Ġcontext": 4981,
      "Ġê°ľìĦł": 4982,
      "ĠPe": 4983,
      "ĠGu": 4984,
      "Ġì£¼ë³Ģ": 4985,
      "Ġê¸Īìľµ": 4986,
      "Ġconsum": 4987,
      "ìĿ´ì§Ģ": 4988,
      "Ġcamp": 4989,
      "eration": 4990,
      "Ġwrite": 4991,
      "ales": 4992,
      "Ġpopulation": 4993,
      "Ġdistribution": 4994,
      "lying": 4995,
      "Ġìĺ¤íĽĦ": 4996,
      "Ġpolicy": 4997,
      "ĠìĺĪìķ½": 4998,
      "yp": 4999,
      "Ġlive": 5000,
      "Ġë¸Ķë¡ľê·¸": 5001,
      "Ġê¿Ī": 5002,
      "ĠâģĦ": 5003,
      "Ġlanguage": 5004,
      "Ġë³ĢíĻĶ": 5005,
      "ìķĮ": 5006,
      "ĠíħĲ": 5007,
      "ĠPH": 5008,
      "Ġneeded": 5009,
      "Ġì¦Ŀê°Ģ": 5010,
      "ĠDes": 5011,
      "osph": 5012,
      "elves": 5013,
      "Ġëĵľë¦½ëĭĪëĭ¤": 5014,
      "Ġwide": 5015,
      "Ġcenter": 5016,
      "ender": 5017,
      "Ġìĺ¬ëł¤": 5018,
      "Ġìĺģìĥģ": 5019,
      "Ġexpected": 5020,
      "taking": 5021,
      "Ġëĺ": 5022,
      "Ġdrug": 5023,
      "vant": 5024,
      "Ġstarted": 5025,
      "Ġmap": 5026,
      "ĠíĿĶ": 5027,
      "cription": 5028,
      "Ġvo": 5029,
      "Ġsus": 5030,
      "Ġformat": 5031,
      "ĠGe": 5032,
      "ëŃ": 5033,
      "Ġwatch": 5034,
      "Ġmillion": 5035,
      "ĠDo": 5036,
      "IG": 5037,
      "Ġscale": 5038,
      "ĠíĸĪìĹĪ": 5039,
      "Ġì²ŃìĨĮ": 5040,
      "Ġknowledge": 5041,
      "Ġtraining": 5042,
      "Ġì»¬": 5043,
      "ĠëĦĵ": 5044,
      "Ġëĵľë¦´": 5045,
      "Ġcontain": 5046,
      "Ġcreated": 5047,
      "ĠìĹ¼": 5048,
      "Ġ\\_": 5049,
      "isted": 5050,
      "ches": 5051,
      "Ġlayer": 5052,
      "Ġminutes": 5053,
      "ken": 5054,
      "Ġespecially": 5055,
      "ĠYork": 5056,
      "ĠìĭľìĬ¤": 5057,
      "ĠHis": 5058,
      "lor": 5059,
      "Ġfoot": 5060,
      "ĠìĦłìĥĿ": 5061,
      "Ġfall": 5062,
      "ĠDep": 5063,
      "titution": 5064,
      "ëĿ¼ìĿ¸": 5065,
      "Ġquick": 5066,
      "iation": 5067,
      "ì³¤": 5068,
      "Ġche": 5069,
      "Ġmach": 5070,
      "ĠëĶ°ë¥´": 5071,
      "ava": 5072,
      "Ġë°©ìĭĿ": 5073,
      "ips": 5074,
      "Id": 5075,
      "Ġspl": 5076,
      "Ġê·¸ëŁ¬ëĤĺ": 5077,
      "ĠíķĺëĤĺëĭĺ": 5078,
      "ĠìĦĿ": 5079,
      "Ġë¹ĦêµĲ": 5080,
      "ĠëĪĦêµ¬": 5081,
      "Ġ></": 5082,
      "aged": 5083,
      "Ġoptions": 5084,
      "Ġìŀĩ": 5085,
      "Ġì°¸ìĹ¬": 5086,
      "Ġmiss": 5087,
      "ì§¸": 5088,
      "Ġìłķìĭł": 5089,
      "gorith": 5090,
      "top": 5091,
      "Ġax": 5092,
      "Ġìĺ¬ë¦¬": 5093,
      "You": 5094,
      "Ġcat": 5095,
      "Ġpan": 5096,
      "Ġê·¸ë¦¬": 5097,
      "Ġsignificantly": 5098,
      "But": 5099,
      "EL": 5100,
      "Ġëľ¨": 5101,
      "Ġimages": 5102,
      "cy": 5103,
      "ĠíŀĪ": 5104,
      "Ġsym": 5105,
      "Ġìŀħìŀ¥": 5106,
      "ĠìĿ´ë£¨": 5107,
      "Ġcontroll": 5108,
      "Ġgetting": 5109,
      "Ġë§¤ìĿ¼": 5110,
      "Ġpressure": 5111,
      "aid": 5112,
      "ëŀľë§Į": 5113,
      "ĠTw": 5114,
      "Ġë¹Į": 5115,
      "amed": 5116,
      "Ġcred": 5117,
      "íĽ": 5118,
      "Ġmoment": 5119,
      "Ġsem": 5120,
      "ĠNot": 5121,
      "ĠìĿ¼ëĭ¨": 5122,
      "iting": 5123,
      "Ġê·¸ë¦¼": 5124,
      "íĭĢ": 5125,
      "ĠBo": 5126,
      "rror": 5127,
      "âĢĭ": 5128,
      "ief": 5129,
      "ì§Ĳ": 5130,
      "ĠíĽĦê¸°": 5131,
      "umb": 5132,
      "ëĥĲ": 5133,
      "Ġê¸°ìŀĲ": 5134,
      "Ġì§Ģë°©": 5135,
      "Ġword": 5136,
      "Ġtherefore": 5137,
      "class": 5138,
      "ae": 5139,
      "Ġâĸ": 5140,
      "ral": 5141,
      "Ġox": 5142,
      "Ġë£": 5143,
      "Ġidea": 5144,
      "Al": 5145,
      "Ġìĭľì¦Į": 5146,
      "ĠÂ§": 5147,
      "Ġattack": 5148,
      "ĠíĬ¹ë³Ħ": 5149,
      "ternal": 5150,
      "Ġaligned": 5151,
      "Ġcomplete": 5152,
      "Ġê°Ģìļ´ëį°": 5153,
      "tific": 5154,
      "Ġcompar": 5155,
      "ĠAg": 5156,
      "Ġemp": 5157,
      "ĠCont": 5158,
      "Ġìłķì±ħ": 5159,
      "Ġtrying": 5160,
      "ë³¼": 5161,
      "ites": 5162,
      "ĠìĽ¨": 5163,
      "ening": 5164,
      "Ġä»": 5165,
      "ĠAN": 5166,
      "Ġ~!": 5167,
      "Ġanything": 5168,
      "ëĦ·": 5169,
      "Ġê°Ģê¹Į": 5170,
      "ĠOb": 5171,
      "ì¡¸": 5172,
      "Ġfeature": 5173,
      "Ġlambda": 5174,
      "Ġperf": 5175,
      "fully": 5176,
      "Ġ*(": 5177,
      "mitted": 5178,
      "Ġgraph": 5179,
      "ëľ»": 5180,
      "There": 5181,
      "Ġeasy": 5182,
      "Ġlines": 5183,
      "Ġë¶Ģì¡±": 5184,
      "bstract": 5185,
      "ĠGo": 5186,
      "ention": 5187,
      "Ġbad": 5188,
      "Ġmember": 5189,
      "rown": 5190,
      "Ġfront": 5191,
      "mon": 5192,
      "Ġbelieve": 5193,
      "Ġareas": 5194,
      "come": 5195,
      "Ġtra": 5196,
      "Ġê·ľëª¨": 5197,
      "ĠëĬ¦": 5198,
      "ĠìĬ¤íĥĢìĿ¼": 5199,
      "Ġinvest": 5200,
      "Ġpoly": 5201,
      "ĠíĻķìĭ¤": 5202,
      "word": 5203,
      "ĠëĮĢë¹Ħ": 5204,
      "Ġeffective": 5205,
      "Ġunit": 5206,
      "Ġfalse": 5207,
      "anks": 5208,
      "ada": 5209,
      "ĠìĺĪìĥģ": 5210,
      "Ġproced": 5211,
      "Ġcontact": 5212,
      "ĠìĪĺì¤Ģ": 5213,
      "ĠìĬ¤íĬ¸": 5214,
      "Ġnothing": 5215,
      "ëª»": 5216,
      "rem": 5217,
      "Ġdeveloped": 5218,
      "Ġmi": 5219,
      "que": 5220,
      "Ġelect": 5221,
      "Ġìĸ¼ë§ĪëĤĺ": 5222,
      "Ġì½ĺ": 5223,
      "ĠíĽĦë³´": 5224,
      "ĠìĿ´ê±°": 5225,
      "Ġë²Ħë¦¬": 5226,
      "ĠOur": 5227,
      "Ġcomes": 5228,
      "icon": 5229,
      "book": 5230,
      "Ġground": 5231,
      "```": 5232,
      "ĠíĳľíĺĦ": 5233,
      "osis": 5234,
      "Ġìŀ¬ë¯¸": 5235,
      "Ġëĸ¨ìĸ´": 5236,
      "Ġattem": 5237,
      "Ġdistr": 5238,
      "Ġ}^{": 5239,
      "tware": 5240,
      "Ġë§Įëĵł": 5241,
      "aint": 5242,
      "Ġtaking": 5243,
      "ged": 5244,
      "ìĿ´ë¸Ķ": 5245,
      "ams": 5246,
      "ĠìĿ¸ê°Ħ": 5247,
      "ìĿ¸íĬ¸": 5248,
      "ises": 5249,
      "Ġê³łìļĶ": 5250,
      "Ġevalu": 5251,
      "ĠìĥĿê¸°": 5252,
      "ĠNational": 5253,
      "ë²¤": 5254,
      "ĠëĮĢë¶Ģë¶Ħ": 5255,
      "ĠìĤ¬ê±´": 5256,
      "Ġìĸ¸ëĭĪ": 5257,
      "Ġmanagement": 5258,
      "Ġìĭ¤ìłľ": 5259,
      "ho": 5260,
      "~~": 5261,
      "Ġë¹Ħìļ©": 5262,
      "Ġheight": 5263,
      "oll": 5264,
      "ĠVal": 5265,
      "ĠìĭľìĦ¤": 5266,
      "wise": 5267,
      "Ġten": 5268,
      "ê°Ļ": 5269,
      "Ġ}}}": 5270,
      "Ġsubst": 5271,
      "PS": 5272,
      "Ġ-------------------------": 5273,
      "iddle": 5274,
      "ĠíĸīìĤ¬": 5275,
      "Ġconv": 5276,
      "Ġinstead": 5277,
      "Ġ=>": 5278,
      "Ġshall": 5279,
      "Ġì¦Ŀìĥģ": 5280,
      "ëĪĪ": 5281,
      "Ġìĺģíĸ¥": 5282,
      "Ġë¹¨ë¦¬": 5283,
      "Ġautom": 5284,
      "ë§ĪíĬ¸": 5285,
      "Ġì¶©ë¶Ħ": 5286,
      "ĠMc": 5287,
      "Ġusers": 5288,
      "Ġëĸ¡": 5289,
      "ê²Ģ": 5290,
      "Ġemail": 5291,
      "Ġë°ľíĳľ": 5292,
      "Ġëª»íĸĪ": 5293,
      "ĠIns": 5294,
      "Ġnatural": 5295,
      "ê·¸ëŀ¨": 5296,
      "body": 5297,
      "ĠJan": 5298,
      "Ġíķ´ëĭ¹": 5299,
      "Ġëľ»": 5300,
      "ithub": 5301,
      "Ġheart": 5302,
      "hic": 5303,
      "Ġë°°ìļ°": 5304,
      "ges": 5305,
      "Ġshare": 5306,
      "ĠìĹ¬ëŁ¬ë¶Ħ": 5307,
      "Ġë°ĶìĿ´": 5308,
      "ĠìĭľìĬ¤íħľ": 5309,
      "elt": 5310,
      "Ġpresented": 5311,
      "ych": 5312,
      "Ġgas": 5313,
      "Ġwalk": 5314,
      "CC": 5315,
      "Ġbeta": 5316,
      "ING": 5317,
      "Ġmusic": 5318,
      "Ġnews": 5319,
      "inally": 5320,
      "Ġincludes": 5321,
      "ulations": 5322,
      "Ġjudg": 5323,
      "Ġê²°íĺ¼": 5324,
      "Ġãģ¯": 5325,
      "ĠíıĲ": 5326,
      "istance": 5327,
      "ëį¸": 5328,
      "Ġsubject": 5329,
      "Ġscri": 5330,
      "Ġë´Ħ": 5331,
      "ĠDef": 5332,
      "Ġìĸ´ëłµ": 5333,
      "Ġlearning": 5334,
      "Ġcry": 5335,
      "Ġë§Īëł¨": 5336,
      "ĠìķĮìķĦë³´": 5337,
      "Ġê°ĢëĵĿ": 5338,
      "Ġspeed": 5339,
      "my": 5340,
      "ĠDel": 5341,
      "Ġrecomm": 5342,
      "Ġbuilding": 5343,
      "Ġquestions": 5344,
      "ama": 5345,
      "ĠìĿ´ëıĻ": 5346,
      "Ġselect": 5347,
      "Ġprofession": 5348,
      "Ġitself": 5349,
      "odel": 5350,
      "Ġíĩ´": 5351,
      "ëŀ¬": 5352,
      "Ġarch": 5353,
      "Ġprice": 5354,
      "Ġê±°ëŀĺ": 5355,
      "ining": 5356,
      "ĠQu": 5357,
      "Ġíķľëį°": 5358,
      "Ġì§ĳì¤ĳ": 5359,
      "ĠTV": 5360,
      "Ġflu": 5361,
      "Ġrecent": 5362,
      "Ġë§Īë¬´ë¦¬": 5363,
      "Ġprimary": 5364,
      "mega": 5365,
      "ìĿ´ëłĩê²Į": 5366,
      "isf": 5367,
      "¬ìĺģ": 5368,
      "EM": 5369,
      "Ġê²ģ": 5370,
      "ĠíĶĦë¡ľê·¸ëŀ¨": 5371,
      "ĠìĦľë¡ľ": 5372,
      "rec": 5373,
      "ĠRec": 5374,
      "ĠCons": 5375,
      "Ġì¹´ëĵľ": 5376,
      "Ġassum": 5377,
      "Ġpatient": 5378,
      "Ġcompl": 5379,
      "ë¨¼": 5380,
      "Ġë§ģ": 5381,
      "Ġconcern": 5382,
      "íĹĪ": 5383,
      "Ġfire": 5384,
      "Ġetc": 5385,
      "uk": 5386,
      "Ġincreasing": 5387,
      "Ġmut": 5388,
      "duce": 5389,
      "OU": 5390,
      "And": 5391,
      "ĠAcc": 5392,
      "Ġfunctions": 5393,
      "Ġmotion": 5394,
      "Ġclient": 5395,
      "Ġinvolved": 5396,
      "IL": 5397,
      "Ġ%,": 5398,
      "Ġproposed": 5399,
      "ards": 5400,
      "ĠëĭŃ": 5401,
      "asc": 5402,
      "ìŀĶ": 5403,
      "ì¼ĵ": 5404,
      "Ð»": 5405,
      "ĠThus": 5406,
      "Ġasp": 5407,
      "Ġseems": 5408,
      "Ġê·¸ëŁ°ëį°": 5409,
      "ĠìĺĪìģĺ": 5410,
      "ĠAb": 5411,
      ";;": 5412,
      "aving": 5413,
      "íķ´ìĦľ": 5414,
      "Ġê³Ħìķ½": 5415,
      "Res": 5416,
      "ĠFalse": 5417,
      "ĠâĻ": 5418,
      "Ġtransfer": 5419,
      "Ġprobably": 5420,
      "Ġaccur": 5421,
      "Ġë¶ĦìĦĿ": 5422,
      "urch": 5423,
      "ĠëĤ´ë¶Ģ": 5424,
      "Ġãģ§": 5425,
      "ĠíĦ": 5426,
      "Ġgithub": 5427,
      "ĠëĤĺìĿ´": 5428,
      "ìĹ¬ê¸°": 5429,
      "ĠPer": 5430,
      "Ġå¹´": 5431,
      "Ġì£¼ì°¨": 5432,
      "Ġlib": 5433,
      "ĠíĮ¬": 5434,
      "List": 5435,
      "Ġsamples": 5436,
      "aves": 5437,
      "ìļĶì¦ĺ": 5438,
      "Ġpm": 5439,
      "ĠìĬĪ": 5440,
      "Ġcorrect": 5441,
      "Ġrunning": 5442,
      "ĠìķĦíĮĮíĬ¸": 5443,
      "Ġìĸ´ì©": 5444,
      "),": 5445,
      "Ġendoftext": 5446,
      "Ġoption": 5447,
      "etry": 5448,
      "Ġelements": 5449,
      "Ġreve": 5450,
      "Ġì«": 5451,
      "emb": 5452,
      "roid": 5453,
      "ĠìĪ¨": 5454,
      "ogen": 5455,
      "ë¦¬ìķĦ": 5456,
      "Ġì§ĢëĤľíķ´": 5457,
      "íĺľ": 5458,
      "uster": 5459,
      "Ġimpact": 5460,
      "Ġerr": 5461,
      "Ġalgorith": 5462,
      "ìĬ·": 5463,
      "Ġshape": 5464,
      "Ġìłľìŀĳ": 5465,
      "ĠPres": 5466,
      "ĠëŃĶê°Ģ": 5467,
      "Ġce": 5468,
      "ĠInc": 5469,
      "Ġengine": 5470,
      "Ġmaintain": 5471,
      "Ġbackground": 5472,
      "ĠìĭĿìĤ¬": 5473,
      "Ġë§¨": 5474,
      "Ġopportun": 5475,
      "Ġê·¸ëĮĢë¡ľ": 5476,
      "Ġaud": 5477,
      "Ġapproxim": 5478,
      "Ġrepe": 5479,
      "Ġì§ģìĽĲ": 5480,
      "Ġscreen": 5481,
      "Ġapplied": 5482,
      "ëł¤ìĦľ": 5483,
      "Ġ}$$": 5484,
      "ìĤ¼": 5485,
      "Ġfeed": 5486,
      "EC": 5487,
      "Ġê°Ħëĭ¨": 5488,
      "omp": 5489,
      "ĠìķĦê¸°": 5490,
      "Ġconven": 5491,
      "ìĿ´íĦ°": 5492,
      "ĠGerm": 5493,
      "Ġbecame": 5494,
      "ìĻĦ": 5495,
      "Ġdraw": 5496,
      "Ġphysical": 5497,
      "Ġfem": 5498,
      "Ġexact": 5499,
      "ana": 5500,
      "oke": 5501,
      "Ġdetermined": 5502,
      "rew": 5503,
      "Ġsomeone": 5504,
      "Ġglobal": 5505,
      "ĠìĥģìĬ¹": 5506,
      "íĦ´": 5507,
      "Ġfiles": 5508,
      "ë¦¿": 5509,
      "Ġfa": 5510,
      "olve": 5511,
      "Ġther": 5512,
      "BC": 5513,
      "ĠìŀĸìķĦ": 5514,
      "ĠìĿ´ìĤ¬": 5515,
      "Ġmolec": 5516,
      "ĠCity": 5517,
      "ili": 5518,
      "this": 5519,
      "ëĥĪ": 5520,
      "Ġcommand": 5521,
      "Ġquite": 5522,
      "ĠIntern": 5523,
      "itation": 5524,
      "Ġsimply": 5525,
      "Ġë»": 5526,
      "ogle": 5527,
      "Ġsecurity": 5528,
      "Ġlocation": 5529,
      "Ġìĵ¸": 5530,
      "Ġlonger": 5531,
      "ĠëįĶëĿ¼ëıĦ": 5532,
      "Ġitems": 5533,
      "Ġhot": 5534,
      "Ġinside": 5535,
      "Ġrang": 5536,
      "arth": 5537,
      "umber": 5538,
      "Ġreference": 5539,
      "enced": 5540,
      "ĠãģĹ": 5541,
      "ĠWorld": 5542,
      "Ġconstant": 5543,
      "Ġì¡Į": 5544,
      "Ġêµ¬ìŀħ": 5545,
      "Ġbring": 5546,
      "Ġì²ĺë¦¬": 5547,
      "Ġrelease": 5548,
      "Ġì¢ħë¥ĺ": 5549,
      "Ġinstance": 5550,
      "Ġarticle": 5551,
      "Ġìłģìļ©": 5552,
      "Ġì´¬ìĺģ": 5553,
      "ederal": 5554,
      "Ġforce": 5555,
      "aker": 5556,
      "Ġê¸°ëĭ¤ë¦¬": 5557,
      "Ġcontinu": 5558,
      "kn": 5559,
      "Ġpresence": 5560,
      "Ġprinc": 5561,
      "erve": 5562,
      "down": 5563,
      "Ġsense": 5564,
      "Ġë¹Ī": 5565,
      "Ġmys": 5566,
      "Ġê¹Ĭ": 5567,
      "Ġìłķìĥģ": 5568,
      "Ġëĭ¹ìĭľ": 5569,
      "ustry": 5570,
      "Ġë¬´ìĬ¨": 5571,
      "Ġexpect": 5572,
      "ĠSim": 5573,
      "ĠíĺĪ": 5574,
      "Ġê°Ĳëıħ": 5575,
      "Ġdirectly": 5576,
      "ĠìŀĲëıĻì°¨": 5577,
      "Ġê·¸ëŁ¼": 5578,
      "Ar": 5579,
      "Ġserver": 5580,
      "Ġensure": 5581,
      "Ġì¡´ìŀ¬": 5582,
      "actions": 5583,
      "Ġê³¤": 5584,
      "Ġëĭ¨ê³Ħ": 5585,
      "ĠWill": 5586,
      "Ġrespect": 5587,
      "Ġì°¬": 5588,
      "Ġformer": 5589,
      "Ġcancer": 5590,
      "Ġround": 5591,
      "Ġstop": 5592,
      "ĠíĥĿ": 5593,
      "elling": 5594,
      "íĺ¹": 5595,
      "Ġauto": 5596,
      "ĠSep": 5597,
      "Ġfilter": 5598,
      "ìłķë§Ĳ": 5599,
      "aled": 5600,
      "Ġì£¼íĥĿ": 5601,
      "arily": 5602,
      "Ġcompan": 5603,
      "rim": 5604,
      "Ġnote": 5605,
      "Ġcd": 5606,
      "Ġkm": 5607,
      "Ġdynam": 5608,
      "Ġcore": 5609,
      "ĠìĿĢíĸī": 5610,
      "Ġresid": 5611,
      "ĠServ": 5612,
      "Ġmix": 5613,
      "Ġë§¡": 5614,
      "ĠíĻĺìŀĲ": 5615,
      "Ġë°ľê²¬": 5616,
      "ourn": 5617,
      "Ġwall": 5618,
      "Ġìĭ±": 5619,
      "zy": 5620,
      "Ġchem": 5621,
      "ackage": 5622,
      "ëįĺ": 5623,
      "Ġhyp": 5624,
      "Ġlimited": 5625,
      "Ġforward": 5626,
      "Ġhost": 5627,
      "Ġhor": 5628,
      "inding": 5629,
      "Ġêµ¬ì¡°": 5630,
      "ìĿ´ìłľ": 5631,
      "arrow": 5632,
      "etric": 5633,
      "ĠAf": 5634,
      "En": 5635,
      "ĠSouth": 5636,
      "ĠìĤ´ì§Ŀ": 5637,
      "Ġir": 5638,
      "ĠìĿ¸ìĤ¬": 5639,
      "ging": 5640,
      "Ġband": 5641,
      "Ġeverything": 5642,
      "BS": 5643,
      "Ġoutside": 5644,
      "Ġì¦ī": 5645,
      "Ġsof": 5646,
      "ĠíĺĦëĮĢ": 5647,
      "Ġìľ¼ë©´ìĦľ": 5648,
      "Ġtechnology": 5649,
      "ops": 5650,
      "ĠCent": 5651,
      "uel": 5652,
      "Ġì§ĢìĨį": 5653,
      "Ġful": 5654,
      "Ġimmun": 5655,
      "ĠìłĢëł´": 5656,
      "ously": 5657,
      "ĠëĶ°ë¡ľ": 5658,
      "Ġê²½ì°°": 5659,
      "eful": 5660,
      "ners": 5661,
      "ì½¤": 5662,
      "Ġíģ¬ë¦¼": 5663,
      "Ġinhib": 5664,
      "Ġ}_{": 5665,
      "tee": 5666,
      "earch": 5667,
      "Ġgreater": 5668,
      "Ġvehic": 5669,
      "Ġusually": 5670,
      "ìĨĮë¦¬": 5671,
      "ìĭ¸": 5672,
      "ĠåĲ": 5673,
      "tivity": 5674,
      "Ġìłķì¹ĺ": 5675,
      "Ġpair": 5676,
      "Ġì£¼ë§Ĳ": 5677,
      "Ġstress": 5678,
      "ĠID": 5679,
      "eks": 5680,
      "ìĿ¸ëĭ¤": 5681,
      "Ġmode": 5682,
      "ĠìĬ¤ëŁ¬ìļ´": 5683,
      "Ġtransform": 5684,
      "Ġhydro": 5685,
      "ĠíķĻìĽĲ": 5686,
      "Ġrev": 5687,
      "ĠReg": 5688,
      "ĠëĥĦ": 5689,
      "ĠìŀĲìľł": 5690,
      "ĠìĪĺìĪł": 5691,
      "Ġdetermine": 5692,
      "head": 5693,
      "Ġfinanc": 5694,
      "ë·°": 5695,
      "Ġì¤ĳìĭ¬": 5696,
      "istration": 5697,
      "Ġdeep": 5698,
      "more": 5699,
      "Ġsequence": 5700,
      "Ġport": 5701,
      "Ġstage": 5702,
      "ĠEl": 5703,
      "Ġsumm": 5704,
      "Ġlack": 5705,
      "Ġë°Ķëŀ": 5706,
      "Ġë¹Ľ": 5707,
      "Ġpush": 5708,
      "ë§İ": 5709,
      "aly": 5710,
      "ê·¸ëŀĺëıĦ": 5711,
      "Ġcomponents": 5712,
      "tries": 5713,
      "Ġë¶Ģëª¨": 5714,
      "Ġupdate": 5715,
      "At": 5716,
      "Ġê¸°ì¡´": 5717,
      "ìľ¼ë©°": 5718,
      "Ġmemory": 5719,
      "ĠìĿ¼ë¶Ģ": 5720,
      "Ġbir": 5721,
      "Ġë¯¸ë¦¬": 5722,
      "Ġrm": 5723,
      "Ġgames": 5724,
      "Ġbasis": 5725,
      "ãĤĮ": 5726,
      "else": 5727,
      "When": 5728,
      "Ġwritten": 5729,
      "ĠHar": 5730,
      "Ġë³´íĺ¸": 5731,
      "task": 5732,
      "Ġpurch": 5733,
      "ì²Ļ": 5734,
      "ĠìĿ¼ìĸ´ëĤĺ": 5735,
      "Ġmer": 5736,
      "Ġìĺ¤ë¹ł": 5737,
      "Ġëįľ": 5738,
      "Ġability": 5739,
      "Ġ''": 5740,
      "Ġprep": 5741,
      "Ġinterp": 5742,
      "Ġpolitical": 5743,
      "bor": 5744,
      "ĠSm": 5745,
      "ONE": 5746,
      "iet": 5747,
      "Ġstay": 5748,
      "Ġblog": 5749,
      "]{}": 5750,
      "Ġclean": 5751,
      "irect": 5752,
      "ĠìĿ´ê³³": 5753,
      "apy": 5754,
      "Ġë¹ĦìĬ·": 5755,
      "miss": 5756,
      "ĠëĮĢì¶ľ": 5757,
      "Ġìķ½ê°Ħ": 5758,
      "Ġ${\\": 5759,
      "Ġìĥ¤": 5760,
      "ĠSer": 5761,
      "Ġnegative": 5762,
      "ìķĦìĿ´": 5763,
      "atform": 5764,
      "ĠUs": 5765,
      "Ġbehavior": 5766,
      "ĠìĤ¬ìŀ¥": 5767,
      "Ġpartial": 5768,
      "ĠìłķíĻķ": 5769,
      "ëŁŃ": 5770,
      "Ġanim": 5771,
      "ĠëĬ¥ëł¥": 5772,
      "Ġbehind": 5773,
      "ãģ®": 5774,
      "īìŀ¥íŀĪ": 5775,
      "Ġìĺģìĸ´": 5776,
      "Ġselected": 5777,
      "ìĮĢ": 5778,
      "Ġcount": 5779,
      "ĠìłĦë§Ŀ": 5780,
      "ëıĻìķĪ": 5781,
      "Ġê²¨ìļ¸": 5782,
      "tick": 5783,
      "vious": 5784,
      "¾Į": 5785,
      "ĠOp": 5786,
      "Ġå®": 5787,
      "ĠìŀĳíĴĪ": 5788,
      "Ġê¸°íļĮ": 5789,
      "Ġacid": 5790,
      "Ġíİ¸íķĺ": 5791,
      "Ġurl": 5792,
      "Ġëĥī": 5793,
      "reng": 5794,
      "Ġëª»íķľ": 5795,
      "joy": 5796,
      "ìħ¨": 5797,
      "Ġêµ¬ê²½": 5798,
      "Ġë§Įëĵľ": 5799,
      "Ġfriend": 5800,
      "Ġavoid": 5801,
      "Ġdifficult": 5802,
      "Ġhom": 5803,
      "Un": 5804,
      "ĠìĤ¼ìĦ±": 5805,
      "Ġë¸Įëŀľëĵľ": 5806,
      "Ġsaw": 5807,
      "Ġìķ¡": 5808,
      "Ġë°ĸìĹĲ": 5809,
      "ĠìĹ°ê²°": 5810,
      "Ġenh": 5811,
      "Ġê·¸ëŁ°ì§Ģ": 5812,
      "Ġì°¸ê³ł": 5813,
      "ĠìķĦë¹ł": 5814,
      "ì§Ħì§ľ": 5815,
      "Ġwait": 5816,
      "Ġgir": 5817,
      "ĠìĽĲëŀĺ": 5818,
      "Ġtradition": 5819,
      "Ġfrequency": 5820,
      "ĠìĹ°ëĿ½": 5821,
      "lege": 5822,
      "Ġmention": 5823,
      "rength": 5824,
      "ĠíĭĢ": 5825,
      "Ġì¢Į": 5826,
      "ements": 5827,
      "Ġos": 5828,
      "ìĿ´ëĵľ": 5829,
      "íĽĪ": 5830,
      "ìĻķ": 5831,
      "ë§ĪìŀĲ": 5832,
      "Ġë°©ìĨ¡": 5833,
      "RI": 5834,
      "Ġtag": 5835,
      "acc": 5836,
      "ĠíĺĦìŀ¥": 5837,
      "Ġê´Ģê³ĦìŀĲ": 5838,
      "Ġroot": 5839,
      "ëŀĻ": 5840,
      "Ġdegree": 5841,
      "Ġmathbf": 5842,
      "Ġhimself": 5843,
      "Ġëª¨ìĸĳ": 5844,
      "Ġliter": 5845,
      "ìĶ¬": 5846,
      "ìĦ¸ìļĶ": 5847,
      "Ġìķķ": 5848,
      "Ġremain": 5849,
      "ëĭĿ": 5850,
      "Ġwanted": 5851,
      "Ġfast": 5852,
      "Ġê·ĢìĹ¬": 5853,
      "Ġprefer": 5854,
      "ĠAug": 5855,
      "Ø§": 5856,
      "ĠëģĮ": 5857,
      "ĠEm": 5858,
      "untu": 5859,
      "Ġnature": 5860,
      "ëª¬": 5861,
      "Ġì§Ĳ": 5862,
      "Ġeyes": 5863,
      "amer": 5864,
      "ĠìĥĿìĤ°": 5865,
      "ĠçĶ": 5866,
      "ĠMo": 5867,
      "ĠãģĮ": 5868,
      "tings": 5869,
      "ades": 5870,
      "Ġalthough": 5871,
      "Ġtheory": 5872,
      "tos": 5873,
      "ĠNorth": 5874,
      "ĠëŀįëĭĪëĭ¤": 5875,
      "Ġê°ķíĻĶ": 5876,
      "Ġnational": 5877,
      "Ġdesigned": 5878,
      "bit": 5879,
      "acity": 5880,
      "Ġcollection": 5881,
      "ius": 5882,
      "ĠìŀĲë§ĪìŀĲ": 5883,
      "Ġê½¤": 5884,
      "Ġdefendant": 5885,
      "Ġpiec": 5886,
      "reet": 5887,
      "Ġbroad": 5888,
      "Ġpractice": 5889,
      "idge": 5890,
      "Ġfollows": 5891,
      "Ġaltern": 5892,
      "Ġmedical": 5893,
      "Ġmatrix": 5894,
      "Ġhref": 5895,
      "used": 5896,
      "Ġë³Ħë¡ľ": 5897,
      "Ġëĭ¬ëŁ¬": 5898,
      "oad": 5899,
      "Ġsound": 5900,
      "Ġdest": 5901,
      "ĠBar": 5902,
      "ê²ĮìļĶ": 5903,
      "Ġprevent": 5904,
      "ĠìĭľëĮĢ": 5905,
      "Ġslow": 5906,
      "Ġsoftware": 5907,
      "Ġbegan": 5908,
      "Ġdiagn": 5909,
      "anch": 5910,
      "Ġìºł": 5911,
      "Ġregular": 5912,
      "rm": 5913,
      "asons": 5914,
      "Ġá": 5915,
      "thern": 5916,
      "Ġtask": 5917,
      "ocr": 5918,
      "Ġìĸ´ìļ¸": 5919,
      "ê·¸ëŁ°": 5920,
      "Ġìľ¨": 5921,
      "ufact": 5922,
      "ĠìĽĢì§ģ": 5923,
      "Ġbottom": 5924,
      "ĠìķĦë¦Ħ": 5925,
      "Ġbutton": 5926,
      "Ġëª¨ëį¸": 5927,
      "Ġíķµ": 5928,
      "ì°į": 5929,
      "Ġë°ľìłĦ": 5930,
      "Ġprop": 5931,
      "Ġnor": 5932,
      "ĠBrit": 5933,
      "Ġsatisf": 5934,
      "hood": 5935,
      "ê½ĥ": 5936,
      "Ġnucle": 5937,
      "ĠFirst": 5938,
      "ì¼°": 5939,
      "ĠìķĦëĵ¤": 5940,
      "###": 5941,
      "ĠWhile": 5942,
      "Ġì´ī": 5943,
      "ëĶ°": 5944,
      "Ġë¯¼ì£¼": 5945,
      "ĠìļĶë¦¬": 5946,
      "Ġrelative": 5947,
      "Ġheav": 5948,
      "Ġarr": 5949,
      "Ġìĥģëĭ¹": 5950,
      "Ġofficial": 5951,
      "íľ´": 5952,
      "aul": 5953,
      "ëĭ¤ê°Ģ": 5954,
      "Ġë¹łë¥´": 5955,
      "Ġdu": 5956,
      "ĠìķĪìłķ": 5957,
      "Ġdistrict": 5958,
      "Ġrespond": 5959,
      "Ġë§¤ìŀ¥": 5960,
      "bar": 5961,
      "Ġì§Īë¬¸": 5962,
      "Ġindustry": 5963,
      "isions": 5964,
      "AG": 5965,
      "ĠìłĲìĭ¬": 5966,
      "Is": 5967,
      "Ġsle": 5968,
      "icted": 5969,
      "Ġparticularly": 5970,
      "ĠìĨĮë¹Ħ": 5971,
      "$$": 5972,
      "Ġì½ĶìĬ¤": 5973,
      "ëģĹ": 5974,
      "Ġclinical": 5975,
      "SS": 5976,
      "Ġliving": 5977,
      "tum": 5978,
      "ëŁ¬ìĬ¤": 5979,
      "OD": 5980,
      "ĠTherefore": 5981,
      "ë»Ĳ": 5982,
      "argin": 5983,
      "Ġcomponent": 5984,
      "Ġê³µê°ľ": 5985,
      "ĠÃĹ": 5986,
      "Ġoil": 5987,
      "lig": 5988,
      "ì¸¡": 5989,
      "Ġfriends": 5990,
      "ĠAct": 5991,
      "Ġexperi": 5992,
      "Ġprivate": 5993,
      "ĠWar": 5994,
      "Ġpone": 5995,
      "ĠNUM": 5996,
      "bon": 5997,
      "Ġëĭ¹ìĭł": 5998,
      "Ġëª©íĳľ": 5999,
      "Ġunc": 6000,
      "Ġì¢ĭìķĦ": 6001,
      "atus": 6002,
      "ì§Ģê¸Ī": 6003,
      "Ġhol": 6004,
      "Ġrot": 6005,
      "ecause": 6006,
      "Ġclick": 6007,
      "ê¹¨": 6008,
      "Ġdark": 6009,
      "Ġrights": 6010,
      "orage": 6011,
      "Ġindependent": 6012,
      "abor": 6013,
      "Ġunique": 6014,
      "Ġì¶Ķì§Ħ": 6015,
      "ĠìŀĳìĦ±": 6016,
      "atives": 6017,
      "Ġlate": 6018,
      "Ġä½": 6019,
      "ĠëĤ¨íİ¸": 6020,
      "ê±°ìļ´": 6021,
      "Ġìłľê±°": 6022,
      "ague": 6023,
      "Ġê°ĳìŀĲê¸°": 6024,
      "Ġpython": 6025,
      "ĠêµŃìłľ": 6026,
      "ĠìĿ¸ìĥĿ": 6027,
      "ache": 6028,
      "ros": 6029,
      "Ġdistance": 6030,
      "ĠìĿ¼ìłķ": 6031,
      "II": 6032,
      "ĠìĿ¸ìłķ": 6033,
      "ĠìĹŃíķł": 6034,
      "Ġ_\\": 6035,
      "Ġdecl": 6036,
      "ĠìĿ¸ê¸°": 6037,
      "Ġstore": 6038,
      "Ġbill": 6039,
      "Ġparen": 6040,
      "Ġmob": 6041,
      "Ġíı¬ìŀ¥": 6042,
      "Ġplayers": 6043,
      "Ġsusp": 6044,
      "Ġdifferences": 6045,
      "Ġperfect": 6046,
      "ë²Ħì§Ģ": 6047,
      "ĠìĿ¼ìĥģ": 6048,
      "raft": 6049,
      "eed": 6050,
      "Ġfavor": 6051,
      "Ġ\\,": 6052,
      "Ġpurpose": 6053,
      "Ġanswer": 6054,
      "íģ´": 6055,
      "Ġê°Ģìŀħ": 6056,
      "ìĬ¤ë¡ľ": 6057,
      "Ġgenerally": 6058,
      "ĠíķĺëĬĺ": 6059,
      "Ġimmedi": 6060,
      "Ġfollowed": 6061,
      "do": 6062,
      "Type": 6063,
      "ĠëłĮ": 6064,
      "Ġë¶Īíİ¸": 6065,
      "Ġê±´ë¬¼": 6066,
      "Ġreduced": 6067,
      "Ġì¡¸": 6068,
      "Ġ}.": 6069,
      "aries": 6070,
      "ĠíĻĢ": 6071,
      "Ġweeks": 6072,
      "Ġë´Ĳìķ¼": 6073,
      "Ġstrength": 6074,
      "Ġargument": 6075,
      "Ġdetails": 6076,
      "Ġãģ¨": 6077,
      "Ġê³łìŀĲ": 6078,
      "ĠData": 6079,
      "Ġíı¬ìĿ¸íĬ¸": 6080,
      "ĠìĿ´ê²Į": 6081,
      "Ġrestr": 6082,
      "encies": 6083,
      "Ġê¸¸ëŀĺ": 6084,
      "Ġms": 6085,
      "ìĬ¤íĥĢ": 6086,
      "ì£½": 6087,
      "Ġappropri": 6088,
      "Ġways": 6089,
      "ilon": 6090,
      "ĠChris": 6091,
      "ëĦĪì§Ģ": 6092,
      "ula": 6093,
      "Ġassign": 6094,
      "plate": 6095,
      "Ġderiv": 6096,
      "Ġtum": 6097,
      "ĠId": 6098,
      "Ġcontract": 6099,
      "Ġattrib": 6100,
      "Ġìĺ¤ìłĦ": 6101,
      "graph": 6102,
      "By": 6103,
      "Ġêµ¬ëĤĺ": 6104,
      "Ġë¶Ħìķ¼": 6105,
      "Ġë³´ìĺĢ": 6106,
      "Ġsurv": 6107,
      "ĠìĭľìĽĲ": 6108,
      "apan": 6109,
      "Ġbuilt": 6110,
      "Ġìĭľê³µ": 6111,
      "Ġ\":\"": 6112,
      "Ġeducation": 6113,
      "Ġë°ĳ": 6114,
      "ĠìĽĲìĿ¸": 6115,
      "Ġíķĳ": 6116,
      "ĠåĪ": 6117,
      "ìĬ´": 6118,
      "ĠHere": 6119,
      "Ġrates": 6120,
      "Ġêµīìŀ¥íŀĪ": 6121,
      "ĠRuss": 6122,
      "Ġdensity": 6123,
      "Ġlen": 6124,
      "tiss": 6125,
      "ĠìĨĮìĬ¤": 6126,
      "ĠMarch": 6127,
      "ê³¤": 6128,
      "Ġë§Īì¹ĺ": 6129,
      "takes": 6130,
      "Ġbal": 6131,
      "Ġìĭľê¸°": 6132,
      "Ġled": 6133,
      "Ġcharg": 6134,
      "Ġë²ĦìĬ¤": 6135,
      "ĠOF": 6136,
      "ĠíĸīëıĻ": 6137,
      "Ġì£¼ìŀ¥": 6138,
      "cto": 6139,
      "ì¹Ļ": 6140,
      "Ġidentified": 6141,
      "Ġoperator": 6142,
      "Ġpret": 6143,
      "Ġkg": 6144,
      "Ġcountries": 6145,
      "Ġpict": 6146,
      "pping": 6147,
      "ĠëĿ¼ìĿ¸": 6148,
      "ĠìħĢ": 6149,
      "rc": 6150,
      "Sh": 6151,
      "Ġæĸ": 6152,
      "ĠëıĦìĻĢ": 6153,
      "Ġpull": 6154,
      "Ġvisit": 6155,
      "Ġtiss": 6156,
      "acement": 6157,
      "ìĹŃìĭľ": 6158,
      "Ġcopy": 6159,
      "ìŀĲë¦¬": 6160,
      "ĠìĻĦìĦ±": 6161,
      "Ñĥ": 6162,
      "Ġub": 6163,
      "Ġapply": 6164,
      "Ġfund": 6165,
      "Ġrule": 6166,
      "Ġë¶Ģíĥģ": 6167,
      "ĩĮ": 6168,
      "Ġ(-": 6169,
      "Ġì³Ĳ": 6170,
      "ĠìłĦíĺĢ": 6171,
      "Ġdevices": 6172,
      "Ġmaterials": 6173,
      "Ġê¸°ìĹĲ": 6174,
      "tree": 6175,
      "Ġequal": 6176,
      "Ġprime": 6177,
      "Ġê°Ģì¹ĺ": 6178,
      "Ġcer": 6179,
      "Ġ=\\": 6180,
      "ĠêµĲìĪĺ": 6181,
      "ĠëĤĺë¬´": 6182,
      "ĠAM": 6183,
      "Ġnav": 6184,
      "ĠSw": 6185,
      "Ġë²Ĺ": 6186,
      "Ġ$(": 6187,
      "ĠìķĦëıĦ": 6188,
      "Ġsoon": 6189,
      "Ġappend": 6190,
      "ĠëĤ¬": 6191,
      "Ġåľ": 6192,
      "ĠApr": 6193,
      "Ġaccept": 6194,
      "ê²ģ": 6195,
      "Ġë°ĶëŀįëĭĪëĭ¤": 6196,
      "ìĤ¬ì§Ħ": 6197,
      "ospital": 6198,
      "ì¿ł": 6199,
      "Ġnames": 6200,
      "Ġì£Ħ": 6201,
      "Ġnone": 6202,
      "Ġë¥ł": 6203,
      "íĨ¡": 6204,
      "Ġê³§": 6205,
      "Ġord": 6206,
      "Ġoperation": 6207,
      "Ġì¤ĳê°Ħ": 6208,
      "ĠìĦ±ë¶Ħ": 6209,
      "Ġtakes": 6210,
      "Ġlinear": 6211,
      "ë¡¯": 6212,
      "Ġëĭ¤ìĿ´ìĸ´": 6213,
      "Ġì¹ĺì¦Ī": 6214,
      "Ġsigma": 6215,
      "IM": 6216,
      "ees": 6217,
      "Ġë³¶": 6218,
      "ĠNow": 6219,
      "ìķŀ": 6220,
      "ĠJune": 6221,
      "psilon": 6222,
      "ĠFrom": 6223,
      "Ġì»´": 6224,
      "Ġsplit": 6225,
      "ĠìĿ¸íĦ°ëĦ·": 6226,
      "ĠFurther": 6227,
      "OM": 6228,
      "Ġmeasured": 6229,
      "Ġì½ľ": 6230,
      "Ġratio": 6231,
      "Ġbed": 6232,
      "Ġparts": 6233,
      "Ġcand": 6234,
      "Ġwhose": 6235,
      "ĠíĿ¡": 6236,
      "Ġusep": 6237,
      "iency": 6238,
      "Ġusepackage": 6239,
      "../": 6240,
      "Ġìŀĺëª»": 6241,
      "vey": 6242,
      "Ġpublished": 6243,
      "Ġlocated": 6244,
      "ĠëĮĢíļĮ": 6245,
      "Ġargs": 6246,
      "ĠCounty": 6247,
      "Ġcompanies": 6248,
      "Ġê·¸ë§Į": 6249,
      "ë¦ĩ": 6250,
      "ĠæĹ": 6251,
      "eless": 6252,
      "Ġchannel": 6253,
      "hy": 6254,
      "Ġwrong": 6255,
      "íħĮë¦¬ìĸ´": 6256,
      "Ġdepend": 6257,
      "Ġplaintiff": 6258,
      "Ġproduced": 6259,
      "room": 6260,
      "Ġsuff": 6261,
      "ëŀ«": 6262,
      "ĠLa": 6263,
      "Ġë¯¸ëŀĺ": 6264,
      "lease": 6265,
      "Ġhighly": 6266,
      "ĠAustr": 6267,
      "ections": 6268,
      "eline": 6269,
      "Ġactivities": 6270,
      "Ġlarger": 6271,
      "ìķĦê°Ģ": 6272,
      "ĠEnglish": 6273,
      "Ġinfo": 6274,
      "Ġenjoy": 6275,
      "Ġê²Ģìĥī": 6276,
      "Col": 6277,
      "Ġchoice": 6278,
      "Ġê²½ìŁģ": 6279,
      "Ġë¶Ģëĵľ": 6280,
      "Ġmg": 6281,
      "Ġgamma": 6282,
      "ming": 6283,
      "pite": 6284,
      "ram": 6285,
      "Ġthems": 6286,
      "Ġuses": 6287,
      "ĠìĹŃìĤ¬": 6288,
      "Ġallows": 6289,
      "izes": 6290,
      "Ð°Ð": 6291,
      "Ġê·¼ì²ĺ": 6292,
      "Ġestablished": 6293,
      "ĠìĦ¸íĬ¸": 6294,
      "Ġisn": 6295,
      "ĠìĹħë¬´": 6296,
      "ëĭ¤ìĿĮ": 6297,
      "Ġì£¼ìĿ¸": 6298,
      "Ġpreviously": 6299,
      "rist": 6300,
      "Ġmid": 6301,
      "ì£Ħ": 6302,
      "Ġoffice": 6303,
      "ĠíĿĺ": 6304,
      "ĠSince": 6305,
      "Ġë´ħëĭĪëĭ¤": 6306,
      "Ġthemselves": 6307,
      "Ġdimension": 6308,
      "Ġnumbers": 6309,
      "ENT": 6310,
      "ĠëĿ¼ìĿ´": 6311,
      "Ġsites": 6312,
      "Ġì±ħìŀĦ": 6313,
      "Ġacqu": 6314,
      "ìĦ¯": 6315,
      "Ġroad": 6316,
      "ì´Į": 6317,
      "ĠìĤ¬íķŃ": 6318,
      "Ġë°©íĸ¥": 6319,
      "Ġcorresponding": 6320,
      "Ġleave": 6321,
      "ĠStud": 6322,
      "Ġëĭ¬ëĿ¼": 6323,
      "Ġplatform": 6324,
      "Ġremove": 6325,
      "âĢ¢": 6326,
      "ĠíĻķëĮĢ": 6327,
      "ociety": 6328,
      "Ġë§ĪìĿĦ": 6329,
      "IV": 6330,
      "®¤": 6331,
      "ìĭľê°Ħ": 6332,
      "Ġtrain": 6333,
      "Ġê±´ì§Ģ": 6334,
      "uper": 6335,
      "So": 6336,
      "Ġmother": 6337,
      "Ġbur": 6338,
      "Ġëķħ": 6339,
      "Ġvariable": 6340,
      "iles": 6341,
      "Error": 6342,
      "Ġlost": 6343,
      "Ġresources": 6344,
      "ĠPHONE": 6345,
      "with": 6346,
      "Ġ^{\\": 6347,
      "urb": 6348,
      "tail": 6349,
      "ĠTHE": 6350,
      "íĤ¬": 6351,
      "Ġattention": 6352,
      "Data": 6353,
      "Ġdatab": 6354,
      "Ġmis": 6355,
      "itary": 6356,
      "ë²¤íĬ¸": 6357,
      "omb": 6358,
      "udge": 6359,
      "Ġfixed": 6360,
[...]
